{
  "version": "1.0",
  "truncation": null,
  "padding": null,
  "added_tokens": [
    {
      "id": 0,
      "content": "[UNK]",
      "single_word": false,
      "lstrip": false,
      "rstrip": false,
      "normalized": false,
      "special": true
    },
    {
      "id": 1,
      "content": "[PAD]",
      "single_word": false,
      "lstrip": false,
      "rstrip": false,
      "normalized": false,
      "special": true
    },
    {
      "id": 2,
      "content": "[BOS]",
      "single_word": false,
      "lstrip": false,
      "rstrip": false,
      "normalized": false,
      "special": true
    },
    {
      "id": 3,
      "content": "[EOS]",
      "single_word": false,
      "lstrip": false,
      "rstrip": false,
      "normalized": false,
      "special": true
    },
    {
      "id": 4,
      "content": "<SOT>",
      "single_word": false,
      "lstrip": false,
      "rstrip": false,
      "normalized": false,
      "special": true
    },
    {
      "id": 5,
      "content": "<EOT>",
      "single_word": false,
      "lstrip": false,
      "rstrip": false,
      "normalized": false,
      "special": true
    },
    {
      "id": 6,
      "content": "<SUBJ>",
      "single_word": false,
      "lstrip": false,
      "rstrip": false,
      "normalized": false,
      "special": true
    },
    {
      "id": 7,
      "content": "<PRED>",
      "single_word": false,
      "lstrip": false,
      "rstrip": false,
      "normalized": false,
      "special": true
    },
    {
      "id": 8,
      "content": "<OBJ>",
      "single_word": false,
      "lstrip": false,
      "rstrip": false,
      "normalized": false,
      "special": true
    },
    {
      "id": 9,
      "content": "<RDF2Text>",
      "single_word": false,
      "lstrip": false,
      "rstrip": false,
      "normalized": false,
      "special": true
    },
    {
      "id": 10,
      "content": "<Text2RDF>",
      "single_word": false,
      "lstrip": false,
      "rstrip": false,
      "normalized": false,
      "special": true
    },
    {
      "id": 11,
      "content": "<CONTINUERDF>",
      "single_word": false,
      "lstrip": false,
      "rstrip": false,
      "normalized": false,
      "special": true
    },
    {
      "id": 12,
      "content": "<MASK>",
      "single_word": false,
      "lstrip": false,
      "rstrip": false,
      "normalized": false,
      "special": true
    }
  ],
  "normalizer": null,
  "pre_tokenizer": {
    "type": "ByteLevel",
    "add_prefix_space": false,
    "trim_offsets": true,
    "use_regex": true
  },
  "post_processor": {
    "type": "TemplateProcessing",
    "single": [
      {
        "Sequence": {
          "id": "A",
          "type_id": 0
        }
      }
    ],
    "pair": [
      {
        "Sequence": {
          "id": "A",
          "type_id": 0
        }
      },
      {
        "Sequence": {
          "id": "B",
          "type_id": 0
        }
      }
    ],
    "special_tokens": {}
  },
  "decoder": {
    "type": "ByteLevel",
    "add_prefix_space": true,
    "trim_offsets": true,
    "use_regex": true
  },
  "model": {
    "type": "BPE",
    "dropout": null,
    "unk_token": "[UNK]",
    "continuing_subword_prefix": null,
    "end_of_word_suffix": null,
    "fuse_unk": false,
    "byte_fallback": false,
    "ignore_merges": false,
    "vocab": {
      "[UNK]": 0,
      "[PAD]": 1,
      "[BOS]": 2,
      "[EOS]": 3,
      "<SOT>": 4,
      "<EOT>": 5,
      "<SUBJ>": 6,
      "<PRED>": 7,
      "<OBJ>": 8,
      "<RDF2Text>": 9,
      "<Text2RDF>": 10,
      "<CONTINUERDF>": 11,
      "<MASK>": 12,
      "!": 13,
      "\"": 14,
      "$": 15,
      "%": 16,
      "&": 17,
      "'": 18,
      "(": 19,
      ")": 20,
      "+": 21,
      ",": 22,
      "-": 23,
      ".": 24,
      "/": 25,
      "0": 26,
      "1": 27,
      "2": 28,
      "3": 29,
      "4": 30,
      "5": 31,
      "6": 32,
      "7": 33,
      "8": 34,
      "9": 35,
      ":": 36,
      ";": 37,
      "<": 38,
      "=": 39,
      ">": 40,
      "?": 41,
      "A": 42,
      "B": 43,
      "C": 44,
      "D": 45,
      "E": 46,
      "F": 47,
      "G": 48,
      "H": 49,
      "I": 50,
      "J": 51,
      "K": 52,
      "L": 53,
      "M": 54,
      "N": 55,
      "O": 56,
      "P": 57,
      "Q": 58,
      "R": 59,
      "S": 60,
      "T": 61,
      "U": 62,
      "V": 63,
      "W": 64,
      "X": 65,
      "Y": 66,
      "Z": 67,
      "[": 68,
      "]": 69,
      "_": 70,
      "a": 71,
      "b": 72,
      "c": 73,
      "d": 74,
      "e": 75,
      "f": 76,
      "g": 77,
      "h": 78,
      "i": 79,
      "j": 80,
      "k": 81,
      "l": 82,
      "m": 83,
      "n": 84,
      "o": 85,
      "p": 86,
      "q": 87,
      "r": 88,
      "s": 89,
      "t": 90,
      "u": 91,
      "v": 92,
      "w": 93,
      "x": 94,
      "y": 95,
      "z": 96,
      "¡": 97,
      "¢": 98,
      "£": 99,
      "¤": 100,
      "¥": 101,
      "¦": 102,
      "§": 103,
      "¨": 104,
      "©": 105,
      "ª": 106,
      "«": 107,
      "¬": 108,
      "®": 109,
      "¯": 110,
      "±": 111,
      "²": 112,
      "³": 113,
      "¶": 114,
      "¸": 115,
      "º": 116,
      "¼": 117,
      "½": 118,
      "¾": 119,
      "Ã": 120,
      "Ä": 121,
      "Å": 122,
      "â": 123,
      "ã": 124,
      "Ċ": 125,
      "Ġ": 126,
      "Ģ": 127,
      "ģ": 128,
      "Ĥ": 129,
      "ĥ": 130,
      "Ħ": 131,
      "ħ": 132,
      "ĩ": 133,
      "Ī": 134,
      "ī": 135,
      "ĭ": 136,
      "į": 137,
      "ĵ": 138,
      "Ķ": 139,
      "ķ": 140,
      "ĺ": 141,
      "Ļ": 142,
      "Ľ": 143,
      "ŀ": 144,
      "Ł": 145,
      "Ń": 146,
      "db": 147,
      "BJ": 148,
      "OT": 149,
      "dbr": 150,
      "><": 151,
      "er": 152,
      "ar": 153,
      "in": 154,
      "an": 155,
      "EOT": 156,
      "OBJ": 157,
      "SU": 158,
      "SOT": 159,
      "SUBJ": 160,
      "ED": 161,
      "PR": 162,
      "dbo": 163,
      "PRED": 164,
      "st": 165,
      "il": 166,
      "ing": 167,
      "re": 168,
      "he": 169,
      "star": 170,
      "ring": 171,
      "or": 172,
      "ilm": 173,
      "starring": 174,
      "on": 175,
      "film": 176,
      "_(": 177,
      ")<": 178,
      "en": 179,
      "ri": 180,
      "ct": 181,
      "di": 182,
      "al": 183,
      "and": 184,
      "The": 185,
      "ed": 186,
      "Ġt": 187,
      "at": 188,
      "is": 189,
      "as": 190,
      "es": 191,
      "Ġ<": 192,
      "ro": 193,
      "am": 194,
      "ic": 195,
      "Ġb": 196,
      "rect": 197,
      "direct": 198,
      "om": 199,
      "19": 200,
      "Ġand": 201,
      "Ġa": 202,
      "ter": 203,
      "el": 204,
      "Ġthe": 205,
      "Ġfilm": 206,
      "Ġw": 207,
      "us": 208,
      "Ġby": 209,
      "os": 210,
      "of": 211,
      "uc": 212,
      "it": 213,
      "et": 214,
      "20": 215,
      "director": 216,
      "DF": 217,
      "RDF": 218,
      "pro": 219,
      "ĠS": 220,
      "ay": 221,
      "ĠA": 222,
      "wri": 223,
      "ad": 224,
      "writer": 225,
      "prod": 226,
      "Ġis": 227,
      "ol": 228,
      "produc": 229,
      "ĠM": 230,
      "le": 231,
      "ra": 232,
      "Ġs": 233,
      "ou": 234,
      "ĠB": 235,
      "ex": 236,
      "producer": 237,
      "omp": 238,
      "ĠThe": 239,
      "th": 240,
      "Tex": 241,
      "Ġf": 242,
      "ompos": 243,
      "usic": 244,
      "Text": 245,
      "ĠI": 246,
      "id": 247,
      "music": 248,
      "Ġc": 249,
      "ur": 250,
      "omposer": 251,
      "Ġin": 252,
      "directed": 253,
      "Composer": 254,
      "ha": 255,
      "musicComposer": 256,
      "ĠP": 257,
      "ce": 258,
      "Ġdirected": 259,
      "ir": 260,
      "un": 261,
      "Ġ19": 262,
      "Ġof": 263,
      "ill": 264,
      "200": 265,
      "ĠC": 266,
      "ĠJ": 267,
      "ĠR": 268,
      "ow": 269,
      "'s": 270,
      "ov": 271,
      "ber": 272,
      "._": 273,
      "ers": 274,
      "ig": 275,
      "ch": 276,
      "ĠH": 277,
      "ĠT": 278,
      "la": 279,
      "ĠF": 280,
      "Ġd": 281,
      "oo": 282,
      "ion": 283,
      "ck": 284,
      "ĠD": 285,
      "ot": 286,
      "man": 287,
      "ĠL": 288,
      "ĠG": 289,
      "ne": 290,
      "An": 291,
      "ge": 292,
      "ak": 293,
      "au": 294,
      "ie": 295,
      "the": 296,
      "Ġp": 297,
      "ĠW": 298,
      "iv": 299,
      "Ġwas": 300,
      "im": 301,
      "ab": 302,
      "av": 303,
      "act": 304,
      "ĠK": 305,
      "ent": 306,
      "ard": 307,
      "ĠIt": 308,
      "Ġon": 309,
      "ath": 310,
      "art": 311,
      "ev": 312,
      ".<": 313,
      "em": 314,
      "ap": 315,
      "Sh": 316,
      "oh": 317,
      "sh": 318,
      "tt": 319,
      "all": 320,
      "AS": 321,
      "MAS": 322,
      "MASK": 323,
      "ran": 324,
      "Ġh": 325,
      "Ġre": 326,
      "ul": 327,
      "201": 328,
      "mer": 329,
      "res": 330,
      "IN": 331,
      "CO": 332,
      "ERDF": 333,
      "NT": 334,
      "UERDF": 335,
      "INUERDF": 336,
      "CONT": 337,
      "CONTINUERDF": 338,
      "op": 339,
      "if": 340,
      "ram": 341,
      "est": 342,
      "ĠN": 343,
      "Ġm": 344,
      "Th": 345,
      "ith": 346,
      "ry": 347,
      "Mar": 348,
      "193": 349,
      "ood": 350,
      "Ro": 351,
      "actor": 352,
      "ĠE": 353,
      "Ch": 354,
      "ican": 355,
      "bert": 356,
      "Al": 357,
      "ian": 358,
      "ased": 359,
      "merican": 360,
      "St": 361,
      "um": 362,
      "ag": 363,
      "ond": 364,
      "Ġstarring": 365,
      "ohn": 366,
      "ell": 367,
      "ire": 368,
      "ĠAmerican": 369,
      "ren": 370,
      "ey": 371,
      "Ġwh": 372,
      "ess": 373,
      "ett": 374,
      "og": 375,
      "hi": 376,
      "rama": 377,
      "ies": 378,
      "na": 379,
      "ep": 380,
      "ut": 381,
      "Ġl": 382,
      "ine": 383,
      "ritt": 384,
      "ame": 385,
      "Ġto": 386,
      "ang": 387,
      "ast": 388,
      "ma": 389,
      "ous": 390,
      "ud": 391,
      "ary": 392,
      "und": 393,
      "ritten": 394,
      "ĠO": 395,
      "Ġstar": 396,
      "Ġn": 397,
      "Ġwritten": 398,
      "Ġdrama": 399,
      "ff": 400,
      "ht": 401,
      "ant": 402,
      "Ġcom": 403,
      "ik": 404,
      "son": 405,
      "to": 406,
      "ation": 407,
      "end": 408,
      "oll": 409,
      "ild": 410,
      "Me": 411,
      "Bl": 412,
      "up": 413,
      "Ġas": 414,
      "ack": 415,
      "edy": 416,
      "ĠIn": 417,
      "ord": 418,
      "ern": 419,
      "ames": 420,
      "Ġfor": 421,
      "ove": 422,
      "Ġstars": 423,
      "ĠV": 424,
      "Ġ200": 425,
      "Big": 426,
      "John": 427,
      "Ġ201": 428,
      "ort": 429,
      "Ġth": 430,
      "ish": 431,
      "oun": 432,
      "oc": 433,
      "eries": 434,
      "ich": 435,
      "ai": 436,
      "les": 437,
      "red": 438,
      "Hire": 439,
      "Man": 440,
      "ash": 441,
      "aw": 442,
      "iss": 443,
      "age": 444,
      "eb": 445,
      "ouse": 446,
      "Ġat": 447,
      "ction": 448,
      "ac": 449,
      "eor": 450,
      "ore": 451,
      "ub": 452,
      "Ġro": 453,
      "ann": 454,
      "rom": 455,
      "Ġwith": 456,
      "Ġrele": 457,
      "oy": 458,
      "qu": 459,
      "And": 460,
      "ress": 461,
      "Ã©": 462,
      "produced": 463,
      "ife": 464,
      "ug": 465,
      "Love": 466,
      "urn": 467,
      "ton": 468,
      "her": 469,
      "sc": 470,
      "Good": 471,
      "ist": 472,
      "kar": 473,
      "ain": 474,
      "Ġcomedy": 475,
      "My": 476,
      "han": 477,
      "een": 478,
      "ya": 479,
      "Ġproduced": 480,
      "ory": 481,
      "Ġreleased": 482,
      "Am": 483,
      "ure": 484,
      "ong": 485,
      "ade": 486,
      "Le": 487,
      "ip": 488,
      "ate": 489,
      ",_": 490,
      "Car": 491,
      "199": 492,
      "ures": 493,
      "vel": 494,
      "ĠSt": 495,
      "Gre": 496,
      "ec": 497,
      "ier": 498,
      "od": 499,
      "aj": 500,
      "ear": 501,
      "ward": 502,
      "own": 503,
      "eat": 504,
      "oe": 505,
      "ru": 506,
      "ĠAn": 507,
      "ĠCh": 508,
      "James": 509,
      "ust": 510,
      "ick": 511,
      "eorge": 512,
      "ari": 513,
      "illi": 514,
      "ind": 515,
      "one": 516,
      "ive": 517,
      "lay": 518,
      "Ġan": 519,
      "esh": 520,
      "ĠFilm": 521,
      "Fran": 522,
      "House": 523,
      "enn": 524,
      "Bar": 525,
      "ock": 526,
      "ly": 527,
      "ob": 528,
      "series": 529,
      "tic": 530,
      "Mur": 531,
      "Ġst": 532,
      "ĠAl": 533,
      "It": 534,
      "Qu": 535,
      "ia": 536,
      "ach": 537,
      "195": 538,
      "Sp": 539,
      "oman": 540,
      "Sc": 541,
      "ĠU": 542,
      "rist": 543,
      "ight": 544,
      "Ar": 545,
      "uk": 546,
      "hael": 547,
      "ark": 548,
      "ĠSh": 549,
      "Ġwho": 550,
      "ost": 551,
      "Her": 552,
      "Ne": 553,
      "ana": 554,
      "Ġbased": 555,
      "2000": 556,
      "Ed": 557,
      "Jess": 558,
      "ph": 559,
      "ane": 560,
      "ather": 561,
      "ict": 562,
      "Ġsh": 563,
      "illiam": 564,
      "Har": 565,
      "dian": 566,
      "All": 567,
      "Ġit": 568,
      "ony": 569,
      "rish": 570,
      "ott": 571,
      "ner": 572,
      "ve": 573,
      "ver": 574,
      "amil": 575,
      "ichael": 576,
      "Don": 577,
      "ence": 578,
      "rit": 579,
      "Ġfrom": 580,
      "Ġ193": 581,
      "aul": 582,
      "app": 583,
      "our": 584,
      "ids": 585,
      "ee": 586,
      "uage": 587,
      "ney": 588,
      "anguage": 589,
      "ther": 590,
      "Sm": 591,
      "Sw": 592,
      "hil": 593,
      "per": 594,
      "anth": 595,
      "oni": 596,
      "Ġbe": 597,
      "ome": 598,
      "196": 599,
      "old": 600,
      "out": 601,
      "ovie": 602,
      "192": 603,
      "2007": 604,
      "Mal": 605,
      "for": 606,
      "gl": 607,
      "Ġal": 608,
      "hen": 609,
      "artin": 610,
      "de": 611,
      "yn": 612,
      "are": 613,
      "ada": 614,
      "Shot": 615,
      "Ġg": 616,
      "omer": 617,
      "ĠTh": 618,
      "Robert": 619,
      "Jesse": 620,
      "George": 621,
      "Par": 622,
      "ah": 623,
      "olla": 624,
      "avid": 625,
      "se": 626,
      "ors": 627,
      "Ġplay": 628,
      "ondon": 629,
      "ĠIndian": 630,
      "De": 631,
      "Mr": 632,
      "Ol": 633,
      "You": 634,
      "ere": 635,
      "2006": 636,
      "Go": 637,
      "In": 638,
      "ji": 639,
      "2003": 640,
      "Ġhis": 641,
      "TV": 642,
      "zan": 643,
      "ance": 644,
      "Kn": 645,
      "language": 646,
      "rem": 647,
      "alam": 648,
      "eld": 649,
      "ung": 650,
      "ke": 651,
      "Ã¡": 652,
      "âĢ": 653,
      "actress": 654,
      "Ġdi": 655,
      "ilent": 656,
      "reen": 657,
      "Ġsc": 658,
      "Ġsilent": 659,
      "ime": 660,
      "Gu": 661,
      "Woman": 662,
      "ok": 663,
      "ts": 664,
      "urning": 665,
      "Ice": 666,
      "Jack": 667,
      "Ros": 668,
      "az": 669,
      "hu": 670,
      "Ġ1": 671,
      "ĠMar": 672,
      "leep": 673,
      "iller": 674,
      "That": 675,
      "Kr": 676,
      "Tw": 677,
      "eter": 678,
      "io": 679,
      "arzan": 680,
      "anc": 681,
      "ork": 682,
      "ley": 683,
      "'t": 684,
      "Do": 685,
      "One": 686,
      "atri": 687,
      "Gild": 688,
      "iz": 689,
      "arty": 690,
      "Thin": 691,
      "Murd": 692,
      "Bro": 693,
      "Je": 694,
      "vi": 695,
      "van": 696,
      "ree": 697,
      "ice": 698,
      "idsomer": 699,
      ":_": 700,
      "Di": 701,
      "El": 702,
      "On": 703,
      "rab": 704,
      "berg": 705,
      "ific": 706,
      "Christ": 707,
      "acific": 708,
      "âĢĵ": 709,
      "Boy": 710,
      "Cas": 711,
      "Miss": 712,
      "Sam": 713,
      "Sleep": 714,
      "ax": 715,
      "ein": 716,
      "ght": 717,
      "hit": 718,
      "Ġ2": 719,
      "rew": 720,
      "ald": 721,
      "ali": 722,
      "Burning": 723,
      "London": 724,
      "rand": 725,
      "aru": 726,
      "ichard": 727,
      "Ber": 728,
      "Bou": 729,
      "Martin": 730,
      "iet": 731,
      "lin": 732,
      "die": 733,
      "Ġ199": 734,
      "ĠJohn": 735,
      "ents": 736,
      "ictures": 737,
      "Jon": 738,
      "Michael": 739,
      "ja": 740,
      "ool": 741,
      "ss": 742,
      "ask": 743,
      "1937": 744,
      "ount": 745,
      "Midsomer": 746,
      "wood": 747,
      "any": 748,
      "ster": 749,
      "ene": 750,
      "eng": 751,
      "ĠPictures": 752,
      "Ġ197": 753,
      "ook": 754,
      "Ġwhich": 755,
      "Murders": 756,
      "Night": 757,
      "Tra": 758,
      "ins": 759,
      "att": 760,
      "udd": 761,
      "ruth": 762,
      "Dev": 763,
      "ger": 764,
      "ox": 765,
      "ĠY": 766,
      "Ġ20": 767,
      "ani": 768,
      "rave": 769,
      "Ġfeat": 770,
      "Ġ194": 771,
      "ovel": 772,
      "Ġthat": 773,
      "Ġroles": 774,
      "Frank": 775,
      "Con": 776,
      "Mil": 777,
      "Ta": 778,
      "ga": 779,
      "orr": 780,
      "ona": 781,
      "ese": 782,
      "uss": 783,
      "auri": 784,
      "Dou": 785,
      "Paul": 786,
      "Val": 787,
      "William": 788,
      "har": 789,
      "ler": 790,
      "so": 791,
      "udi": 792,
      "win": 793,
      "Ġ(": 794,
      "Ġcon": 795,
      "ign": 796,
      "Ġstory": 797,
      "Bha": 798,
      "Get": 799,
      "Jos": 800,
      "Let": 801,
      "Life": 802,
      "Now": 803,
      "Pacific": 804,
      "Sat": 805,
      "mond": 806,
      "ta": 807,
      "197": 808,
      "ity": 809,
      "ole": 810,
      "Mark": 811,
      "Des": 812,
      "Hen": 813,
      "II": 814,
      "composer": 815,
      "ect": 816,
      "Ġmusic": 817,
      "ilt": 818,
      "rik": 819,
      "lead": 820,
      "Ġsup": 821,
      "outh": 822,
      "Ġ192": 823,
      "Ġ195": 824,
      "apt": 825,
      "Ġroman": 826,
      "Ġalso": 827,
      "Be": 828,
      "David": 829,
      "Lau": 830,
      "ui": 831,
      "alp": 832,
      "ompany": 833,
      "aby": 834,
      "ound": 835,
      "Ari": 836,
      "He": 837,
      "Vin": 838,
      "dal": 839,
      "Ġab": 840,
      "uck": 841,
      "ĠAr": 842,
      "rak": 843,
      "Ġsame": 844,
      "Ġfoll": 845,
      "irst": 846,
      "Ġ196": 847,
      "sham": 848,
      "ĠEd": 849,
      "Ġnovel": 850,
      "Ġshort": 851,
      "Smith": 852,
      "Ġfollow": 853,
      "Min": 854,
      "oth": 855,
      "uth": 856,
      "yan": 857,
      "ara": 858,
      "ays": 859,
      "lace": 860,
      "abl": 861,
      "range": 862,
      "Mary": 863,
      "etta": 864,
      "Ad": 865,
      "His": 866,
      "Not": 867,
      "She": 868,
      "Ven": 869,
      "Wal": 870,
      "be": 871,
      "ial": 872,
      "ling": 873,
      "oor": 874,
      "ĠPar": 875,
      "Ġ191": 876,
      "Ġ198": 877,
      "aga": 878,
      "ildren": 879,
      "Jo": 880,
      "Se": 881,
      "Sid": 882,
      "Tarzan": 883,
      "mak": 884,
      "ris": 885,
      "omin": 886,
      "1958": 887,
      "Ale": 888,
      "Cha": 889,
      "Hall": 890,
      "Ly": 891,
      "Or": 892,
      "Off": 893,
      "by": 894,
      "ps": 895,
      "port": 896,
      "Ġpro": 897,
      "anna": 898,
      "oron": 899,
      "riend": 900,
      "ross": 901,
      "elop": 902,
      "Ġseries": 903,
      "ĠBrit": 904,
      "over": 905,
      "ival": 906,
      "Ġher": 907,
      "estival": 908,
      "umar": 909,
      "rench": 910,
      "Krrish": 911,
      "Ġromantic": 912,
      "oronto": 913,
      "La": 914,
      "Ray": 915,
      "Sol": 916,
      "ford": 917,
      "ield": 918,
      "we": 919,
      "onz": 920,
      "ase": 921,
      "its": 922,
      "ives": 923,
      "Cl": 924,
      "Gal": 925,
      "Kill": 926,
      "Movie": 927,
      "Nin": 928,
      "Son": 929,
      "din": 930,
      "mir": 931,
      "utt": 932,
      "Ġlead": 933,
      "erman": 934,
      "anu": 935,
      "rest": 936,
      "orne": 937,
      "ella": 938,
      "Ġtheir": 939,
      "ĠRo": 940,
      "ĠHar": 941,
      "Ann": 942,
      "1934": 943,
      "Carter": 944,
      "anca": 945,
      "Ġabout": 946,
      "ablanca": 947,
      "Br": 948,
      "Baby": 949,
      "Fore": 950,
      "Kash": 951,
      "Molla": 952,
      "Party": 953,
      "Set": 954,
      "Truth": 955,
      "Ver": 956,
      "arles": 957,
      "uch": 958,
      "ird": 959,
      "irl": 960,
      "2015": 961,
      "Barir": 962,
      "Gilda": 963,
      "Brother": 964,
      "'re": 965,
      "Bill": 966,
      "Lo": 967,
      "Raj": 968,
      "gen": 969,
      "no": 970,
      "zing": 971,
      "Ġ\"": 972,
      "Ġk": 973,
      "Ġy": 974,
      "err": 975,
      "orm": 976,
      "rim": 977,
      "ala": 978,
      "ated": 979,
      "row": 980,
      "elest": 981,
      "ĠJames": 982,
      "berella": 983,
      "ĠFestival": 984,
      "Ġde": 985,
      "ĠDe": 986,
      "athi": 987,
      "ape": 988,
      "mazing": 989,
      "unden": 990,
      "ational": 991,
      "ubberella": 992,
      "appan": 993,
      "ĠBritish": 994,
      "eleste": 995,
      "Tim": 996,
      "Town": 997,
      "gn": 998,
      "ks": 999,
      "land": 1000,
      "ting": 1001,
      "tem": 1002,
      "time": 1003,
      "Ã¸": 1004,
      "arb": 1005,
      "sters": 1006,
      "alian": 1007,
      "tern": 1008,
      "Ang": 1009,
      "2016": 1010,
      "etting": 1011,
      "tical": 1012,
      "Edward": 1013,
      "1924": 1014,
      "Amazing": 1015,
      "Brave": 1016,
      "Celeste": 1017,
      "Jay": 1018,
      "Law": 1019,
      "Mc": 1020,
      "uring": 1021,
      "zz": 1022,
      "Ġv": 1023,
      "Ġor": 1024,
      "ile": 1025,
      "Ġtit": 1026,
      "Ġad": 1027,
      "ally": 1028,
      "Ġmade": 1029,
      "Meet": 1030,
      "Blunden": 1031,
      "Blubberella": 1032,
      "Parents": 1033,
      "Casablanca": 1034,
      "Forever": 1035,
      "Gra": 1036,
      "Mon": 1037,
      "Richard": 1038,
      "cus": 1039,
      "from": 1040,
      "host": 1041,
      "ied": 1042,
      "ytime": 1043,
      "erry": 1044,
      "ano": 1045,
      "ric": 1046,
      "ale": 1047,
      "alay": 1048,
      "ise": 1049,
      "asure": 1050,
      "thur": 1051,
      "ide": 1052,
      "ider": 1053,
      "astor": 1054,
      "olly": 1055,
      "Kit": 1056,
      "Les": 1057,
      "Nic": 1058,
      "Our": 1059,
      "Pappan": 1060,
      "Tom": 1061,
      "Us": 1062,
      "West": 1063,
      "ngl": 1064,
      "ĠZ": 1065,
      "Ġne": 1066,
      "andi": 1067,
      "ings": 1068,
      "enelop": 1069,
      "Ġwere": 1070,
      "ouri": 1071,
      "Ġfirst": 1072,
      "ĠJack": 1073,
      "even": 1074,
      "1933": 1075,
      "Ġname": 1076,
      "ocum": 1077,
      "scape": 1078,
      "Greg": 1079,
      "Malay": 1080,
      "Old": 1081,
      "nglish": 1082,
      "enelope": 1083,
      "Er": 1084,
      "Getting": 1085,
      "Mauri": 1086,
      "Na": 1087,
      "No": 1088,
      "Pastor": 1089,
      "Whit": 1090,
      "hel": 1091,
      "enz": 1092,
      "amp": 1093,
      "ita": 1094,
      "adam": 1095,
      "Any": 1096,
      "ull": 1097,
      "1931": 1098,
      "ister": 1099,
      "Going": 1100,
      "Sleepytime": 1101,
      "Vertical": 1102,
      "Bas": 1103,
      "Ky": 1104,
      "Lad": 1105,
      "Toronto": 1106,
      "bie": 1107,
      "da": 1108,
      "ew": 1109,
      "ience": 1110,
      "riller": 1111,
      "era": 1112,
      "Ġact": 1113,
      "off": 1114,
      "ĠJos": 1115,
      "Ġdocum": 1116,
      "ĠWest": 1117,
      "ĠWilliam": 1118,
      "able": 1119,
      "ute": 1120,
      "1994": 1121,
      "ĠUn": 1122,
      "tsab": 1123,
      "ooloo": 1124,
      "ĠRobert": 1125,
      "22": 1126,
      "Company": 1127,
      "DÃ": 1128,
      "Mi": 1129,
      "Mor": 1130,
      "Mis": 1131,
      "Peter": 1132,
      "To": 1133,
      "Up": 1134,
      "ib": 1135,
      "lor": 1136,
      "va": 1137,
      "andra": 1138,
      "ele": 1139,
      "etro": 1140,
      "rah": 1141,
      "ivers": 1142,
      "Charles": 1143,
      "ika": 1144,
      "New": 1145,
      "Vinod": 1146,
      "Bern": 1147,
      "Call": 1148,
      "Escape": 1149,
      "Hate": 1150,
      "Penelope": 1151,
      "Rid": 1152,
      "South": 1153,
      "Utsab": 1154,
      "Zooloo": 1155,
      "oes": 1156,
      "rib": 1157,
      "ashi": 1158,
      "Ġaction": 1159,
      "ĠMe": 1160,
      "Ġco": 1161,
      "ĠFran": 1162,
      "apan": 1163,
      "uted": 1164,
      "Meade": 1165,
      "Franc": 1166,
      "Queen": 1167,
      "atrick": 1168,
      "Mission": 1169,
      "Jones": 1170,
      "ussell": 1171,
      "Lyana": 1172,
      "Kashmir": 1173,
      "Ġdocument": 1174,
      "mm": 1175,
      "pol": 1176,
      "reet": 1177,
      "ates": 1178,
      "roid": 1179,
      "unna": 1180,
      "akk": 1181,
      "Albert": 1182,
      "ebook": 1183,
      "que": 1184,
      "anuary": 1185,
      "&_": 1186,
      "Father": 1187,
      "How": 1188,
      "Hop": 1189,
      "Mer": 1190,
      "_&_": 1191,
      "gy": 1192,
      "sen": 1193,
      "uro": 1194,
      "uction": 1195,
      "yarb": 1196,
      "±r": 1197,
      "Ä±r": 1198,
      "Ġund": 1199,
      "orn": 1200,
      "dies": 1201,
      "ision": 1202,
      "191": 1203,
      "elev": 1204,
      "eturn": 1205,
      "2019": 1206,
      "ĠSid": 1207,
      "ĠAward": 1208,
      "ĠMan": 1209,
      "ĠMalay": 1210,
      "ircus": 1211,
      "ĠGeorge": 1212,
      "akÄ±r": 1213,
      "ievel": 1214,
      "Ġmovie": 1215,
      "1936": 1216,
      "eyond": 1217,
      "Ġlife": 1218,
      "Ġ2018": 1219,
      "here": 1220,
      "Lee": 1221,
      "ĠAnd": 1222,
      "Devil": 1223,
      "restling": 1224,
      "ributed": 1225,
      "yarbakÄ±r": 1226,
      "Ġunder": 1227,
      "Evel": 1228,
      "Game": 1229,
      "Ghost": 1230,
      "Hard": 1231,
      "Mad": 1232,
      "Nor": 1233,
      "Tre": 1234,
      "We": 1235,
      "por": 1236,
      "ston": 1237,
      "ilga": 1238,
      "onkar": 1239,
      "eth": 1240,
      "lack": 1241,
      "iver": 1242,
      "Andre": 1243,
      "enny": 1244,
      "Spy": 1245,
      "Swing": 1246,
      "hile": 1247,
      "Market": 1248,
      "Notebook": 1249,
      "Sea": 1250,
      "omination": 1251,
      "Maurie": 1252,
      "Riders": 1253,
      "ilgaonkar": 1254,
      "45": 1255,
      "Ab": 1256,
      "Kar": 1257,
      "field": 1258,
      "iction": 1259,
      "ld": 1260,
      "ment": 1261,
      "®t": 1262,
      "Ġe": 1263,
      "Ġex": 1264,
      "ino": 1265,
      "indi": 1266,
      "stributed": 1267,
      "ily": 1268,
      "ilson": 1269,
      "ical": 1270,
      "ĠSam": 1271,
      "leasure": 1272,
      "aut": 1273,
      "abel": 1274,
      "abhi": 1275,
      "avanth": 1276,
      "athers": 1277,
      "Shar": 1278,
      "ulers": 1279,
      "eph": 1280,
      "Ġthriller": 1281,
      "ugh": 1282,
      "veler": 1283,
      "Harry": 1284,
      "Ġdistributed": 1285,
      "Ġsupport": 1286,
      "Heart": 1287,
      "rakesh": 1288,
      "Sidney": 1289,
      "Ġtitle": 1290,
      "Ġdocumentary": 1291,
      "gyavanth": 1292,
      "elevision": 1293,
      "gyavantharu": 1294,
      "Deb": 1295,
      "Fall": 1296,
      "Pett": 1297,
      "Van": 1298,
      "aill": 1299,
      "chen": 1300,
      "ek": 1301,
      "gan": 1302,
      "other": 1303,
      "ini": 1304,
      "read": 1305,
      "ondie": 1306,
      "ited": 1307,
      "uru": 1308,
      "cher": 1309,
      "aught": 1310,
      "emy": 1311,
      "Roy": 1312,
      "Road": 1313,
      "iper": 1314,
      "Green": 1315,
      "Arthur": 1316,
      "ynne": 1317,
      "Two": 1318,
      "Beyond": 1319,
      "Cross": 1320,
      "Circus": 1321,
      "Dame": 1322,
      "Five": 1323,
      "Fathers": 1324,
      "Grand": 1325,
      "Is": 1326,
      "Munna": 1327,
      "Pin": 1328,
      "Prem": 1329,
      "Pleasure": 1330,
      "Return": 1331,
      "Rulers": 1332,
      "Sign": 1333,
      "Tony": 1334,
      "Table": 1335,
      "Will": 1336,
      "_âĢĵ": 1337,
      "dra": 1338,
      "hm": 1339,
      "jee": 1340,
      "mi": 1341,
      "rin": 1342,
      "sk": 1343,
      "ted": 1344,
      "tram": 1345,
      "Ġhe": 1346,
      "rid": 1347,
      "andr": 1348,
      "Ġtak": 1349,
      "ater": 1350,
      "ĠMichael": 1351,
      "Ġse": 1352,
      "Ġset": 1353,
      "ĠBl": 1354,
      "ĠBest": 1355,
      "Ġfamil": 1356,
      "Ġch": 1357,
      "Ġcompos": 1358,
      "ural": 1359,
      "ĠPro": 1360,
      "ĠRos": 1361,
      "ĠRaj": 1362,
      "ĠGerman": 1363,
      "Ġprem": 1364,
      "ohan": 1365,
      "Marrakesh": 1366,
      "1932": 1367,
      "Children": 1368,
      "Story": 1369,
      "Strange": 1370,
      "endra": 1371,
      "Ġ2006": 1372,
      "Carma": 1373,
      "Scar": 1374,
      "very": 1375,
      "Knievel": 1376,
      "Ġscreen": 1377,
      "DiyarbakÄ±r": 1378,
      "Missouri": 1379,
      "Traveler": 1380,
      "Ġfeatures": 1381,
      "Bhagyavantharu": 1382,
      "1971": 1383,
      "Ariane": 1384,
      "Raymond": 1385,
      "ternational": 1386,
      "Ġadapt": 1387,
      "ollywood": 1388,
      "DÃ®t": 1389,
      "ĠMalayalam": 1390,
      "Ġsupporting": 1391,
      "_âĢĵ_": 1392,
      "Ġpremier": 1393,
      "May": 1394,
      "do": 1395,
      "pute": 1396,
      "ues": 1397,
      "uel": 1398,
      "wa": 1399,
      "war": 1400,
      "zar": 1401,
      "erv": 1402,
      "amiz": 1403,
      "198": 1404,
      "etw": 1405,
      "ayi": 1406,
      "aylor": 1407,
      "hai": 1408,
      "iram": 1409,
      "illai": 1410,
      "avrik": 1411,
      "ogom": 1412,
      "oung": 1413,
      "reduth": 1414,
      "Android": 1415,
      "Ã©rab": 1416,
      "ecord": 1417,
      "achin": 1418,
      "amila": 1419,
      "deal": 1420,
      "Jean": 1421,
      "orrors": 1422,
      "alpavrik": 1423,
      "iversary": 1424,
      "akku": 1425,
      "uruji": 1426,
      "amizh": 1427,
      "redutha": 1428,
      "Ã©rables": 1429,
      "alpavriksham": 1430,
      "Day": 1431,
      "Gl": 1432,
      "Kabhi": 1433,
      "Ma": 1434,
      "Moe": 1435,
      "co": 1436,
      "och": 1437,
      "pl": 1438,
      "pri": 1439,
      "tes": 1440,
      "Ã±": 1441,
      "Ġar": 1442,
      "Ġover": 1443,
      "reg": 1444,
      "alb": 1445,
      "ata": 1446,
      "Ġbut": 1447,
      "rector": 1448,
      "itz": 1449,
      "olph": 1450,
      "ĠBer": 1451,
      "ĠBar": 1452,
      "Ġfiction": 1453,
      "Ġchar": 1454,
      "urk": 1455,
      "ĠCon": 1456,
      "ĠJe": 1457,
      "ower": 1458,
      "ersaill": 1459,
      "ĠHen": 1460,
      "Ġdeb": 1461,
      "Ġduring": 1462,
      "ĠDavid": 1463,
      "ĠLe": 1464,
      "Ġpl": 1465,
      "Ġpre": 1466,
      "ĠWar": 1467,
      "Ġhas": 1468,
      "elli": 1469,
      "Andrew": 1470,
      "ists": 1471,
      "kara": 1472,
      "ocking": 1473,
      "phy": 1474,
      "Trail": 1475,
      "orror": 1476,
      "Ġcons": 1477,
      "Ġfollows": 1478,
      "Lady": 1479,
      "ĠWestern": 1480,
      "Ġfamily": 1481,
      "ersailles": 1482,
      "Ġdebut": 1483,
      "'_": 1484,
      "Att": 1485,
      "Crab": 1486,
      "Dha": 1487,
      "Domination": 1488,
      "Guruji": 1489,
      "Horrors": 1490,
      "Ideal": 1491,
      "Kh": 1492,
      "King": 1493,
      "Kol": 1494,
      "Kalpavriksham": 1495,
      "Men": 1496,
      "Mel": 1497,
      "Nanna": 1498,
      "Naught": 1499,
      "Oru": 1500,
      "Pot": 1501,
      "Place": 1502,
      "Pied": 1503,
      "Padam": 1504,
      "Piper": 1505,
      "Pillai": 1506,
      "Record": 1507,
      "Sex": 1508,
      "Tamila": 1509,
      "Vakku": 1510,
      "Wife": 1511,
      "Work": 1512,
      "While": 1513,
      "ef": 1514,
      "mayi": 1515,
      "si": 1516,
      "wan": 1517,
      "onald": 1518,
      "enu": 1519,
      "atter": 1520,
      "ush": 1521,
      "ucc": 1522,
      "Anne": 1523,
      "evin": 1524,
      "emb": 1525,
      "iful": 1526,
      "Thread": 1527,
      "Thamizh": 1528,
      "rence": 1529,
      "anghai": 1530,
      "Meow": 1531,
      "Blondie": 1532,
      "quare": 1533,
      "Amhi": 1534,
      "Amma": 1535,
      "Ammayi": 1536,
      "rishna": 1537,
      "1966": 1538,
      "1968": 1539,
      "Malone": 1540,
      "Dooni": 1541,
      "Sleeps": 1542,
      "Satan": 1543,
      "Satpute": 1544,
      "1975": 1545,
      "Henry": 1546,
      "III": 1547,
      "Chaar": 1548,
      "Solar": 1549,
      "Ninja": 1550,
      "Anniversary": 1551,
      "Angst": 1552,
      "Kitchen": 1553,
      "Malayogom": 1554,
      "Basin": 1555,
      "MisÃ©rables": 1556,
      "Touch": 1557,
      "Weather": 1558,
      "autiful": 1559,
      "Pettredutha": 1560,
      "Pinto": 1561,
      "1980": 1562,
      "Patrick": 1563,
      "Ram": 1564,
      "San": 1565,
      "Versailles": 1566,
      "cole": 1567,
      "der": 1568,
      "den": 1569,
      "fter": 1570,
      "gto": 1571,
      "ker": 1572,
      "lal": 1573,
      "led": 1574,
      "nown": 1575,
      "ras": 1576,
      "uff": 1577,
      "ws": 1578,
      "Ã¥": 1579,
      "Ġun": 1580,
      "Ġman": 1581,
      "inal": 1582,
      "ines": 1583,
      "ila": 1584,
      "Ġtw": 1585,
      "asures": 1586,
      "amm": 1587,
      "oming": 1588,
      "omas": 1589,
      "eley": 1590,
      "Ġwon": 1591,
      "itt": 1592,
      "ayath": 1593,
      "ayiram": 1594,
      "adly": 1595,
      "adalp": 1596,
      "olas": 1597,
      "ĠMay": 1598,
      "ĠBig": 1599,
      "Ġinc": 1600,
      "hap": 1601,
      "ĠPeter": 1602,
      "illole": 1603,
      "ĠJon": 1604,
      "ĠJapan": 1605,
      "ovin": 1606,
      "lav": 1607,
      "ĠFrench": 1608,
      "ĠGu": 1609,
      "geance": 1610,
      "Ġper": 1611,
      "avul": 1612,
      "allas": 1613,
      "Ġhad": 1614,
      "Ġhorror": 1615,
      "oody": 1616,
      "Rob": 1617,
      "ĠEl": 1618,
      "Ġwhile": 1619,
      "ogra": 1620,
      "uturo": 1621,
      "endetta": 1622,
      "ashing": 1623,
      "anngto": 1624,
      "quel": 1625,
      "ressing": 1626,
      "science": 1627,
      "ipan": 1628,
      "ĠAll": 1629,
      "Scott": 1630,
      "ottai": 1631,
      "peration": 1632,
      "anthan": 1633,
      "1927": 1634,
      "orset": 1635,
      "askorset": 1636,
      "ilty": 1637,
      "ĠParam": 1638,
      "Joon": 1639,
      "Ġorig": 1640,
      "andido": 1641,
      "Ġcomposed": 1642,
      "ayathra": 1643,
      "adalpalam": 1644,
      "avulla": 1645,
      "Bo": 1646,
      "Bren": 1647,
      "Cor": 1648,
      "Eain": 1649,
      "Gonz": 1650,
      "Ht": 1651,
      "Lynne": 1652,
      "Sch": 1653,
      "Ter": 1654,
      "cott": 1655,
      "drama": 1656,
      "sb": 1657,
      "su": 1658,
      "uri": 1659,
      "ctor": 1660,
      "anda": 1661,
      "andal": 1662,
      "ass": 1663,
      "thik": 1664,
      "iga": 1665,
      "auk": 1666,
      "athyan": 1667,
      "ette": 1668,
      "undred": 1669,
      "eorg": 1670,
      "Great": 1671,
      "earch": 1672,
      "Herbert": 1673,
      "omeo": 1674,
      "rime": 1675,
      "ksandr": 1676,
      "Grace": 1677,
      "polit": 1678,
      "As": 1679,
      "Aika": 1680,
      "Aayiram": 1681,
      "Ba": 1682,
      "Bh": 1683,
      "Beat": 1684,
      "Bird": 1685,
      "Benny": 1686,
      "Bandido": 1687,
      "Cla": 1688,
      "Come": 1689,
      "Dr": 1690,
      "Dar": 1691,
      "Dressing": 1692,
      "Em": 1693,
      "Fred": 1694,
      "Friend": 1695,
      "French": 1696,
      "Gold": 1697,
      "Hid": 1698,
      "Jung": 1699,
      "Kir": 1700,
      "Kottai": 1701,
      "Kadalpalam": 1702,
      "Lies": 1703,
      "Lovin": 1704,
      "Nag": 1705,
      "Operation": 1706,
      "Pri": 1707,
      "Re": 1708,
      "Sui": 1709,
      "Sanngto": 1710,
      "Vendetta": 1711,
      "Wings": 1712,
      "Wrestling": 1713,
      "futuro": 1714,
      "mund": 1715,
      "oon": 1716,
      "oir": 1717,
      "pillole": 1718,
      "sv": 1719,
      "uman": 1720,
      "vin": 1721,
      "wn": 1722,
      "ze": 1723,
      "Ġj": 1724,
      "Ġdirector": 1725,
      "inem": 1726,
      "ank": 1727,
      "Ġtelevision": 1728,
      "atural": 1729,
      "asy": 1730,
      "ami": 1731,
      "Ġafter": 1732,
      "ĠSp": 1733,
      "ĠAd": 1734,
      "ĠAm": 1735,
      "production": 1736,
      "ĠMc": 1737,
      "ĠMy": 1738,
      "ĠMur": 1739,
      "Ġsucc": 1740,
      "thy": 1741,
      "urt": 1742,
      "Ġinto": 1743,
      "une": 1744,
      "Ġoff": 1745,
      "2008": 1746,
      "ĠCar": 1747,
      "ĠJay": 1748,
      "ĠRichard": 1749,
      "erson": 1750,
      "lain": 1751,
      "Ġdes": 1752,
      "Anna": 1753,
      "Ananthan": 1754,
      "abeth": 1755,
      "shok": 1756,
      "Ġrev": 1757,
      "opra": 1758,
      "Three": 1759,
      "Marsh": 1760,
      "Rock": 1761,
      "ĠEnglish": 1762,
      "ephen": 1763,
      "Ġlost": 1764,
      "antasy": 1765,
      "ĠInternational": 1766,
      "ernatural": 1767,
      "Ġ2000": 1768,
      "Ġ2005": 1769,
      "Ġ2007": 1770,
      "Ġ2014": 1771,
      "ugust": 1772,
      "tonio": 1773,
      "ĠChrist": 1774,
      "1956": 1775,
      "Heroes": 1776,
      "Ġits": 1777,
      "Smashing": 1778,
      "Swine": 1779,
      "1969": 1780,
      "Ġplayed": 1781,
      "Deadly": 1782,
      "Know": 1783,
      "Knocking": 1784,
      "Guilty": 1785,
      "Gilded": 1786,
      "Director": 1787,
      "Conscience": 1788,
      "Valley": 1789,
      "Valipan": 1790,
      "Ġmusical": 1791,
      "Vengeance": 1792,
      "Ladies": 1793,
      "Load": 1794,
      "Ġyear": 1795,
      "Timber": 1796,
      "Monsters": 1797,
      "Used": 1798,
      "Gregory": 1799,
      "Ercole": 1800,
      "Naavulla": 1801,
      "ĠUnited": 1802,
      "Vinodayathra": 1803,
      "1916": 1804,
      "Treasures": 1805,
      "Andreaskorset": 1806,
      "Vanji": 1807,
      "Grandma": 1808,
      "Ġpremiered": 1809,
      "prise": 1810,
      "Ġcharact": 1811,
      "Ġplot": 1812,
      "Attack": 1813,
      "Dhaaga": 1814,
      "Naughty": 1815,
      "ĠParamount": 1816,
      "Ġsuccess": 1817,
      "Bri": 1818,
      "Dis": 1819,
      "Joe": 1820,
      "ail": 1821,
      "eedy": 1822,
      "fred": 1823,
      "gh": 1824,
      "hada": 1825,
      "jen": 1826,
      "kumar": 1827,
      "keley": 1828,
      "ray": 1829,
      "zona": 1830,
      "erab": 1831,
      "ina": 1832,
      "stard": 1833,
      "orgen": 1834,
      "amest": 1835,
      "ica": 1836,
      "admi": 1837,
      "igh": 1838,
      "chant": 1839,
      "akase": 1840,
      "imony": 1841,
      "imorgen": 1842,
      "atharu": 1843,
      "ult": 1844,
      "ude": 1845,
      "antra": 1846,
      "ustr": 1847,
      "hilona": 1848,
      "glas": 1849,
      "Oliver": 1850,
      "Jeff": 1851,
      "aniel": 1852,
      "maker": 1853,
      "Alex": 1854,
      "dinary": 1855,
      "Ã¸tes": 1856,
      "etropolit": 1857,
      "Francis": 1858,
      "eraba": 1859,
      "amestown": 1860,
      "atharuvi": 1861,
      "etropolitan": 1862,
      "Budd": 1863,
      "Fox": 1864,
      "Luc": 1865,
      "Ral": 1866,
      "Russell": 1867,
      "Sim": 1868,
      "Wag": 1869,
      "af": 1870,
      "gel": 1871,
      "ho": 1872,
      "ira": 1873,
      "ltram": 1874,
      "ue": 1875,
      "Ġup": 1876,
      "Ġout": 1877,
      "Ġproduction": 1878,
      "stein": 1879,
      "ens": 1880,
      "enberg": 1881,
      "alab": 1882,
      "rov": 1883,
      "ely": 1884,
      "Ġfilms": 1885,
      "ĠShe": 1886,
      "ĠAc": 1887,
      "ĠAp": 1888,
      "ados": 1889,
      "ĠMa": 1890,
      "ĠMary": 1891,
      "ĠMartin": 1892,
      "lem": 1893,
      "Ġsp": 1894,
      "ĠBill": 1895,
      "ides": 1896,
      "Ġcast": 1897,
      "Ġcinem": 1898,
      "urprise": 1899,
      "ĠPaul": 1900,
      "ĠCl": 1901,
      "ĠCor": 1902,
      "ĠRay": 1903,
      "ĠHer": 1904,
      "ĠHouse": 1905,
      "ĠTamil": 1906,
      "ĠTarzan": 1907,
      "ĠDi": 1908,
      "aksh": 1909,
      "Ġpart": 1910,
      "ĠItalian": 1911,
      "Ġone": 1912,
      "ember": 1913,
      "Show": 1914,
      "2018": 1915,
      "Ġmy": 1916,
      "ired": 1917,
      "Ġwhere": 1918,
      "Ġloc": 1919,
      "astus": 1920,
      "ĠOct": 1921,
      "Ġ2016": 1922,
      "ongs": 1923,
      "ĠShar": 1924,
      "ĠThis": 1925,
      "ollaps": 1926,
      "ounty": 1927,
      "stery": 1928,
      "ĠEdward": 1929,
      "election": 1930,
      "Ġaround": 1931,
      "regon": 1932,
      "urkey": 1933,
      "Ġincl": 1934,
      "ĠJapanese": 1935,
      "ltraman": 1936,
      "ollapsed": 1937,
      "Aadmi": 1938,
      "Ben": 1939,
      "Bits": 1940,
      "Div": 1941,
      "East": 1942,
      "Every": 1943,
      "Four": 1944,
      "Hai": 1945,
      "Hundred": 1946,
      "January": 1947,
      "Jhada": 1948,
      "Jamestown": 1949,
      "Kay": 1950,
      "Kids": 1951,
      "Khilona": 1952,
      "Last": 1953,
      "Muk": 1954,
      "Mantra": 1955,
      "Metropolitan": 1956,
      "Pone": 1957,
      "Pilgaonkar": 1958,
      "Romeo": 1959,
      "Sal": 1960,
      "Say": 1961,
      "Sund": 1962,
      "Sup": 1963,
      "Sachin": 1964,
      "Square": 1965,
      "SÃ¥": 1966,
      "Search": 1967,
      "Ten": 1968,
      "Tak": 1969,
      "Time": 1970,
      "Wh": 1971,
      "Want": 1972,
      "Wives": 1973,
      "girl": 1974,
      "jay": 1975,
      "mÃ¸tes": 1976,
      "natharuvi": 1977,
      "preet": 1978,
      "yapp": 1979,
      "Ã¶": 1980,
      "ilbert": 1981,
      "reland": 1982,
      "filmmaker": 1983,
      "andhu": 1984,
      "ator": 1985,
      "itch": 1986,
      "athan": 1987,
      "evan": 1988,
      "Shanghai": 1989,
      "Marry": 1990,
      "1935": 1991,
      "Alan": 1992,
      "Alimony": 1993,
      "Stone": 1994,
      "etty": 1995,
      "ociet": 1996,
      "issa": 1997,
      "anner": 1998,
      "Mynatharuvi": 1999,
      "1998": 2000,
      "1999": 2001,
      "ode": 2002,
      "earance": 2003,
      "Speedy": 2004,
      "Scandal": 2005,
      "Neeraba": 2006,
      "Roshan": 2007,
      "Tway": 2008,
      "Once": 2009,
      "Berkeley": 2010,
      "Tae": 2011,
      "udio": 2012,
      "Beautiful": 2013,
      "Arizona": 2014,
      "Aleksandr": 2015,
      "Ordinary": 2016,
      "Billy": 2017,
      "noir": 2018,
      "Kyauk": 2019,
      "Upon": 2020,
      "Merchant": 2021,
      "Debbie": 2022,
      "etween": 2023,
      "Kolakase": 2024,
      "Htar": 2025,
      "Bastard": 2026,
      "Hidden": 2027,
      "Jungle": 2028,
      "Priyapp": 2029,
      "ustralian": 2030,
      "Priyappetta": 2031,
      "'m": 2032,
      "Ke": 2033,
      "Lock": 2034,
      "Rastus": 2035,
      "Sv": 2036,
      "Win": 2037,
      "aane": 2038,
      "bi": 2039,
      "gu": 2040,
      "gar": 2041,
      "ham": 2042,
      "ko": 2043,
      "kta": 2044,
      "lock": 2045,
      "lada": 2046,
      "nan": 2047,
      "nor": 2048,
      "oet": 2049,
      "ober": 2050,
      "rad": 2051,
      "sin": 2052,
      "tann": 2053,
      "uan": 2054,
      "ual": 2055,
      "xT": 2056,
      "Ã«": 2057,
      "Ã³": 2058,
      "Ãħ": 2059,
      "Äĩ": 2060,
      "Ġart": 2061,
      "Ġop": 2062,
      "ĠQu": 2063,
      "arsham": 2064,
      "rike": 2065,
      "ander": 2066,
      "Ġte": 2067,
      "isha": 2068,
      "ama": 2069,
      "amra": 2070,
      "Ġag": 2071,
      "Ġap": 2072,
      "ela": 2073,
      "Ġwoman": 2074,
      "ose": 2075,
      "oskara": 2076,
      "uce": 2077,
      "etee": 2078,
      "ĠSouth": 2079,
      "ĠBro": 2080,
      "ĠBur": 2081,
      "thony": 2082,
      "Ġcrime": 2083,
      "ĠJul": 2084,
      "ĠJess": 2085,
      "ĠRe": 2086,
      "ĠHindi": 2087,
      "ĠFord": 2088,
      "ĠFox": 2089,
      "ĠWal": 2090,
      "artet": 2091,
      "Ġrece": 2092,
      "Ġremak": 2093,
      "ĠNor": 2094,
      "ĠNew": 2095,
      "Roger": 2096,
      "Stephen": 2097,
      "agoskara": 2098,
      "oga": 2099,
      "Ġlater": 2100,
      "ĠOl": 2101,
      "Ġ2012": 2102,
      "Ġthree": 2103,
      "ubb": 2104,
      "annada": 2105,
      "ĠFilms": 2106,
      "ennis": 2107,
      "Ġshot": 2108,
      "ritz": 2109,
      "Ġ1934": 2110,
      "hilip": 2111,
      "perados": 2112,
      "Ġbeing": 2113,
      "Jackie": 2114,
      "Brown": 2115,
      "Christian": 2116,
      "Joseph": 2117,
      "aptein": 2118,
      "dalen": 2119,
      "Ġknown": 2120,
      "Ã¸mm": 2121,
      "rahlada": 2122,
      "abeltann": 2123,
      "Ġconsider": 2124,
      "alabam": 2125,
      "ĠOctober": 2126,
      "oetry": 2127,
      "Ãħdalen": 2128,
      "eteega": 2129,
      "Ġremake": 2130,
      "Ã¸mmen": 2131,
      "abeltanns": 2132,
      "Bur": 2133,
      "Gop": 2134,
      "Hal": 2135,
      "Ion": 2136,
      "Jac": 2137,
      "Jerry": 2138,
      "Lask": 2139,
      "Max": 2140,
      "Roo": 2141,
      "Seat": 2142,
      "ace": 2143,
      "air": 2144,
      "fe": 2145,
      "fern": 2146,
      "gner": 2147,
      "ior": 2148,
      "je": 2149,
      "jit": 2150,
      "mas": 2151,
      "ni": 2152,
      "ti": 2153,
      "uv": 2154,
      "uilt": 2155,
      "arn": 2156,
      "inson": 2157,
      "str": 2158,
      "rey": 2159,
      "ori": 2160,
      "oris": 2161,
      "right": 2162,
      "eshi": 2163,
      "rough": 2164,
      "itter": 2165,
      "ether": 2166,
      "adow": 2167,
      "rav": 2168,
      "idevan": 2169,
      "evi": 2170,
      "ranian": 2171,
      "ogether": 2172,
      "oby": 2173,
      "enceau": 2174,
      "okila": 2175,
      "rakash": 2176,
      "Venu": 2177,
      "Walter": 2178,
      "gnidevan": 2179,
      "White": 2180,
      "enzo": 2181,
      "ociety": 2182,
      "Lasky": 2183,
      "fernal": 2184,
      "Are": 2185,
      "Alain": 2186,
      "Aamra": 2187,
      "Bounty": 2188,
      "Col": 2189,
      "City": 2190,
      "Coming": 2191,
      "Clem": 2192,
      "Collapsed": 2193,
      "Dun": 2194,
      "Doll": 2195,
      "Days": 2196,
      "Dallas": 2197,
      "English": 2198,
      "Ford": 2199,
      "Fear": 2200,
      "Gar": 2201,
      "Hou": 2202,
      "Hart": 2203,
      "Hits": 2204,
      "Hollywood": 2205,
      "Hoga": 2206,
      "Jr": 2207,
      "Jul": 2208,
      "Jaane": 2209,
      "Kya": 2210,
      "Matt": 2211,
      "Mutt": 2212,
      "Oregon": 2213,
      "Pier": 2214,
      "Prahlada": 2215,
      "Poetry": 2216,
      "Rev": 2217,
      "Rudd": 2218,
      "Seven": 2219,
      "Surprise": 2220,
      "Selection": 2221,
      "Sabeltanns": 2222,
      "Turkey": 2223,
      "TxT": 2224,
      "Ultraman": 2225,
      "War": 2226,
      "Wilson": 2227,
      "cial": 2228,
      "ft": 2229,
      "kaptein": 2230,
      "lit": 2231,
      "pen": 2232,
      "ril": 2233,
      "za": 2234,
      "Ã¼": 2235,
      "ÅĻ": 2236,
      "Ġ3": 2237,
      "ert": 2238,
      "ankar": 2239,
      "dia": 2240,
      "atif": 2241,
      "asan": 2242,
      "Ġbro": 2243,
      "Ġbox": 2244,
      "Ġac": 2245,
      "Ġtheat": 2246,
      "ĠSm": 2247,
      "ĠSan": 2248,
      "ĠSep": 2249,
      "ayne": 2250,
      "ĠAle": 2251,
      "ĠAugust": 2252,
      "ĠAustralian": 2253,
      "ademy": 2254,
      "Ġfoc": 2255,
      "ida": 2256,
      "ury": 2257,
      "Ġind": 2258,
      "Ġinter": 2259,
      "hav": 2260,
      "ĠJo": 2261,
      "ĠRal": 2262,
      "ova": 2263,
      "ĠFred": 2264,
      "ĠDes": 2265,
      "ĠLau": 2266,
      "ĠLove": 2267,
      "ivan": 2268,
      "ived": 2269,
      "avel": 2270,
      "aveen": 2271,
      "ever": 2272,
      "Shame": 2273,
      "Shalabam": 2274,
      "Ġhand": 2275,
      "Thomas": 2276,
      "Marines": 2277,
      "Chopra": 2278,
      "udge": 2279,
      "Ġstarred": 2280,
      "Ġnot": 2281,
      "ante": 2282,
      "ike": 2283,
      "iku": 2284,
      "erner": 2285,
      "Ġ2003": 2286,
      "Ġ2011": 2287,
      "screen": 2288,
      "1997": 2289,
      "Quiet": 2290,
      "Quartet": 2291,
      "1959": 2292,
      "Sparsham": 2293,
      "Split": 2294,
      "uke": 2295,
      "Ġ1937": 2296,
      "1928": 2297,
      "hendra": 2298,
      "Ġ18": 2299,
      "Does": 2300,
      "atric": 2301,
      "axter": 2302,
      "Ġ2020": 2303,
      "Taiga": 2304,
      "Bhakta": 2305,
      "Gets": 2306,
      "Desperados": 2307,
      "Ninagoskara": 2308,
      "tember": 2309,
      "Edwards": 2310,
      "Mix": 2311,
      "ĠFrank": 2312,
      "Howard": 2313,
      "ĠSidney": 2314,
      "Madhu": 2315,
      "ĠProd": 2316,
      "ĠHenry": 2317,
      "Ġtwo": 2318,
      "Ġperfor": 2319,
      "DrÃ¸mmen": 2320,
      "Ġcharacter": 2321,
      "Buddha": 2322,
      "ĠAcademy": 2323,
      "Ġmystery": 2324,
      "Ġinclud": 2325,
      "Divides": 2326,
      "Sunday": 2327,
      "Supernatural": 2328,
      "Teneteega": 2329,
      "What": 2330,
      "Ġagain": 2331,
      "Ġconsidered": 2332,
      "ĠSeptember": 2333,
      "Ġfocus": 2334,
      "screenwriter": 2335,
      "Actor": 2336,
      "Daniel": 2337,
      "Jer": 2338,
      "Mas": 2339,
      "Mort": 2340,
      "Sha": 2341,
      "Sathyan": 2342,
      "Sandhu": 2343,
      "Tr": 2344,
      "Taylor": 2345,
      "Un": 2346,
      "Vid": 2347,
      "Wild": 2348,
      "bt": 2349,
      "col": 2350,
      "dÃ¡": 2351,
      "fess": 2352,
      "jala": 2353,
      "ki": 2354,
      "lers": 2355,
      "lting": 2356,
      "phere": 2357,
      "wen": 2358,
      "well": 2359,
      "wick": 2360,
      "¾enu": 2361,
      "Åį": 2362,
      "Å¾enu": 2363,
      "erenberg": 2364,
      "riya": 2365,
      "isphere": 2366,
      "esc": 2367,
      "terman": 2368,
      "aya": 2369,
      "ayton": 2370,
      "ayya": 2371,
      "unt": 2372,
      "ake": 2373,
      "iva": 2374,
      "emisphere": 2375,
      "aped": 2376,
      "2010": 2377,
      "opher": 2378,
      "iano": 2379,
      "ogayya": 2380,
      "qui": 2381,
      "Andy": 2382,
      "hera": 2383,
      "Amy": 2384,
      "indow": 2385,
      "Barry": 2386,
      "achine": 2387,
      "Harpreet": 2388,
      "appearance": 2389,
      "antha": 2390,
      "Guy": 2391,
      "Douglas": 2392,
      "othy": 2393,
      "uttlers": 2394,
      "errill": 2395,
      "ormoe": 2396,
      "Nicolas": 2397,
      "enzie": 2398,
      "dÃ¡m": 2399,
      "),": 2400,
      "Code": 2401,
      "Dav": 2402,
      "Gri": 2403,
      "Ivan": 2404,
      "Lou": 2405,
      "Mak": 2406,
      "Sa": 2407,
      "Was": 2408,
      "gin": 2409,
      "ka": 2410,
      "ller": 2411,
      "mp": 2412,
      "mber": 2413,
      "moni": 2414,
      "net": 2415,
      "nie": 2416,
      "Ġen": 2417,
      "Ġent": 2418,
      "erik": 2419,
      "orld": 2420,
      "dier": 2421,
      "dish": 2422,
      "andro": 2423,
      "ating": 2424,
      "atÃ©": 2425,
      "Ġbeen": 2426,
      "Ġbec": 2427,
      "Ġblack": 2428,
      "Ġbetween": 2429,
      "osh": 2430,
      "ĠSw": 2431,
      "adha": 2432,
      "ĠMil": 2433,
      "ĠMon": 2434,
      "ĠMel": 2435,
      "Ġsex": 2436,
      "Ġsub": 2437,
      "ĠBe": 2438,
      "ĠBh": 2439,
      "ĠBr": 2440,
      "Ġfriend": 2441,
      "cember": 2442,
      "ĠCol": 2443,
      "ĠCla": 2444,
      "ĠJanuary": 2445,
      "ĠRoy": 2446,
      "chool": 2447,
      "ĠHe": 2448,
      "ĠHow": 2449,
      "ĠTom": 2450,
      "ĠDou": 2451,
      "ĠLaw": 2452,
      "ĠGl": 2453,
      "ĠGreen": 2454,
      "iews": 2455,
      "Ġpe": 2456,
      "Ġpri": 2457,
      "ĠWilson": 2458,
      "ĠKy": 2459,
      "Ġret": 2460,
      "Ġreal": 2461,
      "ulkar": 2462,
      "mercial": 2463,
      "Ġmark": 2464,
      "ĠEr": 2465,
      "ĠEar": 2466,
      "Chandra": 2467,
      "Stein": 2468,
      "umb": 2469,
      "Ġlove": 2470,
      "mack": 2471,
      "anton": 2472,
      "Ġcome": 2473,
      "Ġcomm": 2474,
      "Ġcommercial": 2475,
      "endar": 2476,
      "upid": 2477,
      "upta": 2478,
      "ordon": 2479,
      "Ġ2009": 2480,
      "Ġ2017": 2481,
      "Ġrole": 2482,
      "ĠStates": 2483,
      "econd": 2484,
      "ĠAlbert": 2485,
      "Ã¡n": 2486,
      "aze": 2487,
      "Ġ16": 2488,
      "ĠMarch": 2489,
      "atrimoni": 2490,
      "engupta": 2491,
      "Ġ2019": 2492,
      "Ġ2022": 2493,
      "udios": 2494,
      "Ġsuper": 2495,
      "Laura": 2496,
      "Lauren": 2497,
      "Ġ1916": 2498,
      "dini": 2499,
      "ĠDecember": 2500,
      "ĠFranc": 2501,
      "poration": 2502,
      "rince": 2503,
      "Ġchildren": 2504,
      "Ġadapted": 2505,
      "Ġadaptation": 2506,
      "Ã±os": 2507,
      "Ġfictional": 2508,
      "owery": 2509,
      "atterjee": 2510,
      "ĠJones": 2511,
      "Ġoriginal": 2512,
      "Brenon": 2513,
      "Cormack": 2514,
      "Ġoffice": 2515,
      "ĠCorporation": 2516,
      "Ġreceived": 2517,
      "ulkarni": 2518,
      "atrimonio": 2519,
      "Agnidevan": 2520,
      "Bal": 2521,
      "Betty": 2522,
      "Built": 2523,
      "Boris": 2524,
      "Bitter": 2525,
      "Che": 2526,
      "Came": 2527,
      "Cate": 2528,
      "Dick": 2529,
      "Ear": 2530,
      "Eug": 2531,
      "Fu": 2532,
      "Formoe": 2533,
      "Gul": 2534,
      "Georg": 2535,
      "Gilbert": 2536,
      "Hel": 2537,
      "Het": 2538,
      "Hun": 2539,
      "Hag": 2540,
      "Haw": 2541,
      "Hemisphere": 2542,
      "Ireland": 2543,
      "Iranian": 2544,
      "Jogayya": 2545,
      "Kiss": 2546,
      "Kumar": 2547,
      "Kokila": 2548,
      "Lan": 2549,
      "Lure": 2550,
      "Luck": 2551,
      "Mo": 2552,
      "Moor": 2553,
      "Machine": 2554,
      "Nan": 2555,
      "Nerenberg": 2556,
      "Oh": 2557,
      "Orange": 2558,
      "Per": 2559,
      "Prov": 2560,
      "Ronald": 2561,
      "Sman": 2562,
      "Sop": 2563,
      "Society": 2564,
      "Taw": 2565,
      "Talb": 2566,
      "Together": 2567,
      "Taped": 2568,
      "Ujala": 2569,
      "Window": 2570,
      "Yin": 2571,
      "Young": 2572,
      "aos": 2573,
      "bs": 2574,
      "bro": 2575,
      "gio": 2576,
      "ix": 2577,
      "iy": 2578,
      "lie": 2579,
      "loy": 2580,
      "ny": 2581,
      "oÃ«": 2582,
      "ple": 2583,
      "tz": 2584,
      "von": 2585,
      "vath": 2586,
      "vey": 2587,
      "way": 2588,
      "yr": 2589,
      "arno": 2590,
      "ink": 2591,
      "insters": 2592,
      "ans": 2593,
      "ille": 2594,
      "orrow": 2595,
      "dic": 2596,
      "digu": 2597,
      "They": 2598,
      "edum": 2599,
      "ite": 2600,
      "itup": 2601,
      "2022": 2602,
      "Texas": 2603,
      "illo": 2604,
      "mani": 2605,
      "Antonio": 2606,
      "aker": 2607,
      "akan": 2608,
      "ima": 2609,
      "avan": 2610,
      "aves": 2611,
      "Shadow": 2612,
      "rant": 2613,
      "2017": 2614,
      "ithers": 2615,
      "Roach": 2616,
      "Ali": 2617,
      "ffith": 2618,
      "ollins": 2619,
      "Manaos": 2620,
      "Andhera": 2621,
      "Ã©digu": 2622,
      "Lew": 2623,
      "1993": 2624,
      "Greene": 2625,
      "inda": 2626,
      "acher": 2627,
      "Scuttlers": 2628,
      "Ark": 2629,
      "Edmund": 2630,
      "atherine": 2631,
      "Allen": 2632,
      "Infernal": 2633,
      "azz": 2634,
      "Kron": 2635,
      "Twinsters": 2636,
      "izabeth": 2637,
      "Christmas": 2638,
      "Case": 2639,
      "Samantha": 2640,
      "Boulting": 2641,
      "attle": 2642,
      "Mille": 2643,
      "Milice": 2644,
      "Doubt": 2645,
      "Joshi": 2646,
      "Nowhere": 2647,
      "Desire": 2648,
      "ields": 2649,
      "Clark": 2650,
      "Lois": 2651,
      "Timothy": 2652,
      "Grain": 2653,
      "ideo": 2654,
      "ullivan": 2655,
      "Mira": 2656,
      "Morris": 2657,
      "ibi": 2658,
      "raham": 2659,
      "Newman": 2660,
      "Nora": 2661,
      "sky": 2662,
      "Khwin": 2663,
      "Gonzaga": 2664,
      "Kirby": 2665,
      "svou": 2666,
      "Disappearance": 2667,
      "Waggner": 2668,
      "Showgirl": 2669,
      "Mukher": 2670,
      "Clemenceau": 2671,
      "Pierre": 2672,
      "Madhuri": 2673,
      "fessor": 2674,
      "ProvdÃ¡m": 2675,
      "Talbot": 2676,
      "loyd": 2677,
      "vathy": 2678,
      "edumudi": 2679,
      "Ã©diguian": 2680,
      "56": 2681,
      "Ashok": 2682,
      "Boll": 2683,
      "Cec": 2684,
      "Dennis": 2685,
      "For": 2686,
      "Ga": 2687,
      "Ger": 2688,
      "Jan": 2689,
      "Jane": 2690,
      "Kevin": 2691,
      "Lind": 2692,
      "Nik": 2693,
      "Pal": 2694,
      "Sy": 2695,
      "Sz": 2696,
      "Sar": 2697,
      "Uwe": 2698,
      "Ve": 2699,
      "Ward": 2700,
      "Wood": 2701,
      "bj": 2702,
      "bor": 2703,
      "cha": 2704,
      "chel": 2705,
      "eet": 2706,
      "fer": 2707,
      "gman": 2708,
      "gari": 2709,
      "hie": 2710,
      "ject": 2711,
      "kov": 2712,
      "ll": 2713,
      "let": 2714,
      "phan": 2715,
      "play": 2716,
      "pect": 2717,
      "rce": 2718,
      "ving": 2719,
      "ves": 2720,
      "whit": 2721,
      "yob": 2722,
      "¯rce": 2723,
      "Å¯rce": 2724,
      "Ġ5": 2725,
      "Ġ7": 2726,
      "Ġr": 2727,
      "Ġare": 2728,
      "Ġother": 2729,
      "arry": 2730,
      "iny": 2731,
      "anai": 2732,
      "inghe": 2733,
      "rett": 2734,
      "heinson": 2735,
      "ons": 2736,
      "ena": 2737,
      "rie": 2738,
      "ries": 2739,
      "dique": 2740,
      "alla": 2741,
      "Ġteen": 2742,
      "atra": 2743,
      "ative": 2744,
      "eserv": 2745,
      "amu": 2746,
      "aman": 2747,
      "amed": 2748,
      "Ġbanner": 2749,
      "omber": 2750,
      "Ġthey": 2751,
      "use": 2752,
      "ĠSar": 2753,
      "ĠSum": 2754,
      "ayashi": 2755,
      "olt": 2756,
      "olog": 2757,
      "ĠMoh": 2758,
      "ĠMuk": 2759,
      "ĠMax": 2760,
      "lez": 2761,
      "Ġshe": 2762,
      "Ġsoc": 2763,
      "Ġschool": 2764,
      "oul": 2765,
      "ĠBal": 2766,
      "ĠBha": 2767,
      "ĠBased": 2768,
      "ĠBren": 2769,
      "ĠBern": 2770,
      "ĠBeng": 2771,
      "Ġfind": 2772,
      "ĠIs": 2773,
      "Ġcl": 2774,
      "ĠPal": 2775,
      "ĠPilgaonkar": 2776,
      "irk": 2777,
      "unch": 2778,
      "ĠJerry": 2779,
      "ĠJune": 2780,
      "owe": 2781,
      "ovember": 2782,
      "igu": 2783,
      "ĠTra": 2784,
      "ĠTony": 2785,
      "ĠTaylor": 2786,
      "ĠDon": 2787,
      "ĠLee": 2788,
      "ĠLondon": 2789,
      "ĠLayton": 2790,
      "ĠGo": 2791,
      "ĠGold": 2792,
      "nest": 2793,
      "Anthony": 2794,
      "akesh": 2795,
      "Ġplace": 2796,
      "ĠWood": 2797,
      "imated": 2798,
      "impen": 2799,
      "aven": 2800,
      "ĠKumar": 2801,
      "ĠKannada": 2802,
      "ardo": 2803,
      "athog": 2804,
      "apatÃ©": 2805,
      "Ġrem": 2806,
      "ular": 2807,
      "ople": 2808,
      "estiny": 2809,
      "ĠNa": 2810,
      "ĠNot": 2811,
      "ĠNovember": 2812,
      "Marc": 2813,
      "Alfred": 2814,
      "Storm": 2815,
      "umber": 2816,
      "ondram": 2817,
      "ondsc": 2818,
      "ogan": 2819,
      "hiyob": 2820,
      "epend": 2821,
      "Ġlate": 2822,
      "Ġlives": 2823,
      "ĠOn": 2824,
      "ĠOne": 2825,
      "Ġnomin": 2826,
      "Ġass": 2827,
      "ĠVin": 2828,
      "ĠVen": 2829,
      "Ġthis": 2830,
      "Ġthrough": 2831,
      "Ġrelease": 2832,
      "ĠStudios": 2833,
      "usty": 2834,
      "uster": 2835,
      "ĠAlan": 2836,
      "ault": 2837,
      "oniÄĩ": 2838,
      "ĠThat": 2839,
      "Youth": 2840,
      "keem": 2841,
      "Ã¡lez": 2842,
      "Ġdisc": 2843,
      "Ġscore": 2844,
      "Ġscience": 2845,
      "ĠMarathi": 2846,
      "Samuel": 2847,
      "Ġ25": 2848,
      "iete": 2849,
      "Ġ1993": 2850,
      "Ġ1997": 2851,
      "sterie": 2852,
      "Ġ1971": 2853,
      "Ġ1940": 2854,
      "aurice": 2855,
      "Ġcont": 2856,
      "igned": 2857,
      "JosÃ©": 2858,
      "Ġ1958": 2859,
      "Beck": 2860,
      "ĠArt": 2861,
      "Ġfollowing": 2862,
      "Adolph": 2863,
      "onze": 2864,
      "ĠHarry": 2865,
      "Brad": 2866,
      "Bruce": 2867,
      "genre": 2868,
      "Ġyoung": 2869,
      "gnjen": 2870,
      "iderberg": 2871,
      "Ġactress": 2872,
      "ĠJoseph": 2873,
      "Bernard": 2874,
      "Norman": 2875,
      "Ġtakes": 2876,
      "Ġsets": 2877,
      "ohanlal": 2878,
      "Ġscreenplay": 2879,
      "waranai": 2880,
      "rasad": 2881,
      "hapatra": 2882,
      "lavoniÄĩ": 2883,
      "ograph": 2884,
      "ography": 2885,
      "amien": 2886,
      "Ġdesigned": 2887,
      "irai": 2888,
      "ĠApril": 2889,
      "ĠBilly": 2890,
      "Wined": 2891,
      "Ġapp": 2892,
      "ĠJesse": 2893,
      "Ã¼ller": 2894,
      "ÅĻapatÃ©": 2895,
      "ĠAlex": 2896,
      "Ġindepend": 2897,
      "Ġagainst": 2898,
      "Ġfocuses": 2899,
      "errilla": 2900,
      "Ġpeople": 2901,
      "bjev": 2902,
      "phans": 2903,
      "white": 2904,
      "heinsonate": 2905,
      "eservists": 2906,
      "Ġsocial": 2907,
      "ĠBengali": 2908,
      "unchi": 2909,
      "ĠGolden": 2910,
      "athogen": 2911,
      "ondscheinsonate": 2912,
      "hiyobi": 2913,
      "Ġnominated": 2914,
      "Ġindependent": 2915,
      "Catherine": 2916,
      "Ken": 2917,
      "Kim": 2918,
      "Pad": 2919,
      "Rav": 2920,
      "Sullivan": 2921,
      "bu": 2922,
      "ban": 2923,
      "bilt": 2924,
      "can": 2925,
      "feld": 2926,
      "get": 2927,
      "gers": 2928,
      "gomer": 2929,
      "hood": 2930,
      "ih": 2931,
      "nell": 2932,
      "ty": 2933,
      "tgomer": 2934,
      "inn": 2935,
      "oro": 2936,
      "edford": 2937,
      "eson": 2938,
      "ammer": 2939,
      "usan": 2940,
      "osl": 2941,
      "ossi": 2942,
      "leen": 2943,
      "last": 2944,
      "cken": 2945,
      "akht": 2946,
      "aube": 2947,
      "avall": 2948,
      "eve": 2949,
      "allow": 2950,
      "opard": 2951,
      "opesc": 2952,
      "umm": 2953,
      "udy": 2954,
      "ende": 2955,
      "ilda": 2956,
      "uby": 2957,
      "iering": 2958,
      "earn": 2959,
      "arker": 2960,
      "oster": 2961,
      "Harvey": 2962,
      "ahl": 2963,
      "azir": 2964,
      "aysberg": 2965,
      "hmalb": 2966,
      "ittle": 2967,
      "sben": 2968,
      "ankan": 2969,
      "Simon": 2970,
      "anderbilt": 2971,
      "Gopo": 2972,
      "Davis": 2973,
      "Griffith": 2974,
      "Louise": 2975,
      "Steiner": 2976,
      "tgomery": 2977,
      "ossiter": 2978,
      "avalli": 2979,
      "opescu": 2980,
      "hmalbaf": 2981,
      "!_(": 2982,
      "American": 2983,
      "Bis": 2984,
      "Bad": 2985,
      "Baxter": 2986,
      "Bomber": 2987,
      "Cupid": 2988,
      "Drew": 2989,
      "Destiny": 2990,
      "Damien": 2991,
      "Fantasy": 2992,
      "Fimpen": 2993,
      "Fault": 2994,
      "Girl": 2995,
      "Gray": 2996,
      "Gordon": 2997,
      "GlavoniÄĩ": 2998,
      "Hos": 2999,
      "Hell": 3000,
      "Hound": 3001,
      "Kop": 3002,
      "Kiku": 3003,
      "Kenzie": 3004,
      "Kulkarni": 3005,
      "Lang": 3006,
      "Latif": 3007,
      "Mos": 3008,
      "Moh": 3009,
      "Mondscheinsonate": 3010,
      "Naveen": 3011,
      "Ognjen": 3012,
      "Owaranai": 3013,
      "Objev": 3014,
      "Pe": 3015,
      "Philip": 3016,
      "Prince": 3017,
      "Pirai": 3018,
      "Punchi": 3019,
      "Pathogen": 3020,
      "Rand": 3021,
      "Rah": 3022,
      "Rail": 3023,
      "Renzo": 3024,
      "Rakesh": 3025,
      "Reservists": 3026,
      "Song": 3027,
      "Soul": 3028,
      "Skeem": 3029,
      "Siete": 3030,
      "TM": 3031,
      "Tavel": 3032,
      "Wil": 3033,
      "Widerberg": 3034,
      "Zh": 3035,
      "ait": 3036,
      "aine": 3037,
      "aÃ±os": 3038,
      "band": 3039,
      "bell": 3040,
      "ced": 3041,
      "cent": 3042,
      "du": 3043,
      "dy": 3044,
      "ful": 3045,
      "gwick": 3046,
      "hol": 3047,
      "hÅ¯rce": 3048,
      "iro": 3049,
      "ius": 3050,
      "jo": 3051,
      "jun": 3052,
      "lv": 3053,
      "matrimonio": 3054,
      "nold": 3055,
      "oz": 3056,
      "oos": 3057,
      "ron": 3058,
      "ured": 3059,
      "vent": 3060,
      "ville": 3061,
      "wak": 3062,
      "yo": 3063,
      "ãģ": 3064,
      "ãĤ": 3065,
      "Ġ'": 3066,
      "Ġ6": 3067,
      "Ġha": 3068,
      "Ġim": 3069,
      "Ġev": 3070,
      "Ġob": 3071,
      "erick": 3072,
      "inley": 3073,
      "ils": 3074,
      "redi": 3075,
      "heer": 3076,
      "heesh": 3077,
      "orio": 3078,
      "rich": 3079,
      "ritic": 3080,
      "rithik": 3081,
      "dit": 3082,
      "diqui": 3083,
      "andran": 3084,
      "Theda": 3085,
      "edgwick": 3086,
      "Ġtra": 3087,
      "Ġturn": 3088,
      "atography": 3089,
      "esi": 3090,
      "roff": 3091,
      "amb": 3092,
      "amous": 3093,
      "amsu": 3094,
      "Ġback": 3095,
      "Ġbook": 3096,
      "omb": 3097,
      "omedy": 3098,
      "Ġaward": 3099,
      "Ġaired": 3100,
      "eline": 3101,
      "Ġfilmed": 3102,
      "Ġwar": 3103,
      "Ġwell": 3104,
      "usband": 3105,
      "etect": 3106,
      "ĠSc": 3107,
      "ĠSe": 3108,
      "ĠSin": 3109,
      "ĠSing": 3110,
      "ĠSri": 3111,
      "ĠSha": 3112,
      "ĠSund": 3113,
      "ĠAf": 3114,
      "ĠAshok": 3115,
      "adh": 3116,
      "oland": 3117,
      "ĠMark": 3118,
      "Ġsongs": 3119,
      "ĠBob": 3120,
      "ĠBollywood": 3121,
      "Ġfive": 3122,
      "Ġfour": 3123,
      "Ġfantasy": 3124,
      "ĠPrem": 3125,
      "ĠPacific": 3126,
      "ĠPatrick": 3127,
      "2009": 3128,
      "ĠCo": 3129,
      "ĠCan": 3130,
      "ĠCann": 3131,
      "ĠCity": 3132,
      "ĠJan": 3133,
      "ĠJac": 3134,
      "ĠRam": 3135,
      "ĠRob": 3136,
      "ĠRuss": 3137,
      "ĠRussell": 3138,
      "ows": 3139,
      "owers": 3140,
      "ĠHt": 3141,
      "ĠHel": 3142,
      "ĠHart": 3143,
      "ĠHong": 3144,
      "ĠTV": 3145,
      "ĠTa": 3146,
      "ĠTw": 3147,
      "ĠTer": 3148,
      "ĠToronto": 3149,
      "laing": 3150,
      "Ġdev": 3151,
      "Ġdec": 3152,
      "Ġdays": 3153,
      "ional": 3154,
      "ĠDan": 3155,
      "ĠLa": 3156,
      "ĠLad": 3157,
      "ĠGrand": 3158,
      "ĠGonz": 3159,
      "ĠGeorg": 3160,
      "gest": 3161,
      "aureen": 3162,
      "augh": 3163,
      "iegel": 3164,
      "Ġpres": 3165,
      "Ġpop": 3166,
      "ĠWe": 3167,
      "ĠWin": 3168,
      "ĠWill": 3169,
      "ĠWell": 3170,
      "abhar": 3171,
      "ĠKe": 3172,
      "ĠKh": 3173,
      "ĠKing": 3174,
      "Ġonly": 3175,
      "shan": 3176,
      "ship": 3177,
      "tty": 3178,
      "rani": 3179,
      "rans": 3180,
      "Ġhusband": 3181,
      "Ġrec": 3182,
      "Ġrel": 3183,
      "uller": 3184,
      "ester": 3185,
      "ĠNe": 3186,
      "ĠNin": 3187,
      "ĠNag": 3188,
      "ĠNight": 3189,
      "Ġmur": 3190,
      "Rod": 3191,
      "Robe": 3192,
      "ĠEm": 3193,
      "ĠEast": 3194,
      "Chatterjee": 3195,
      "StÅĻapatÃ©": 3196,
      "agar": 3197,
      "Ġwhose": 3198,
      "ĠOur": 3199,
      "ĠOly": 3200,
      "Ġnow": 3201,
      "ffe": 3202,
      "enders": 3203,
      "Blues": 3204,
      "Bluff": 3205,
      "ĠIndia": 3206,
      "ordan": 3207,
      "ĠVid": 3208,
      "ĠVenu": 3209,
      "Ġ2002": 3210,
      "Ġ2008": 3211,
      "Ġ2010": 3212,
      "Ġ2013": 3213,
      "Ġ2015": 3214,
      "ission": 3215,
      "orean": 3216,
      "Andare": 3217,
      "Mysterie": 3218,
      "hankar": 3219,
      "1990": 3220,
      "Grey": 3221,
      "odore": 3222,
      "ĠAngel": 3223,
      "ustin": 3224,
      "ickey": 3225,
      "Ġanimated": 3226,
      "ennett": 3227,
      "Bara": 3228,
      "Murali": 3229,
      "Murphy": 3230,
      "1953": 3231,
      "ĠShot": 3232,
      "Neill": 3233,
      "Jessica": 3234,
      "ictor": 3235,
      "Ġ1933": 3236,
      "Swap": 3237,
      "Ġbegan": 3238,
      "1967": 3239,
      "Ġalongs": 3240,
      "Ġget": 3241,
      "Parade": 3242,
      "Guerrilla": 3243,
      "Jackson": 3244,
      "Ross": 3245,
      "Ġ23": 3246,
      "Martinelli": 3247,
      "Jonathan": 3248,
      "ĠYork": 3249,
      "Ġfeature": 3250,
      "Ġfeaturing": 3251,
      "Miles": 3252,
      "Deswa": 3253,
      "ected": 3254,
      "Ġ1927": 3255,
      "Ġ1928": 3256,
      "Ġ1953": 3257,
      "Bezar": 3258,
      "ĠArthur": 3259,
      "Ġ1969": 3260,
      "Minister": 3261,
      "Notari": 3262,
      "Ġ1915": 3263,
      "Ġ1980": 3264,
      "Orphans": 3265,
      "Soldier": 3266,
      "Killari": 3267,
      "Bronze": 3268,
      "Rajendar": 3269,
      "temps": 3270,
      "Angel": 3271,
      "McCormack": 3272,
      "zzaman": 3273,
      "Ġadvent": 3274,
      "Niccol": 3275,
      "Nichiyobi": 3276,
      "Tomlin": 3277,
      "Ġneo": 3278,
      "Malayalam": 3279,
      "ampbell": 3280,
      "Ladla": 3281,
      "ĠJoshi": 3282,
      "quez": 3283,
      "1915": 3284,
      "ĠAwards": 3285,
      "ĠAndrew": 3286,
      "Ġedi": 3287,
      "ekha": 3288,
      "Isamu": 3289,
      "ridge": 3290,
      "Ġsection": 3291,
      "Ġsequel": 3292,
      "ĠProfessor": 3293,
      "Ġscreened": 3294,
      "Mahendra": 3295,
      "Mahapatra": 3296,
      "plo": 3297,
      "ĠJeff": 3298,
      "ĠWarner": 3299,
      "embro": 3300,
      "Ġmany": 3301,
      "Ġorigin": 3302,
      "GonzÃ¡lez": 3303,
      "Terje": 3304,
      "Asgari": 3305,
      "Emily": 3306,
      "Golden": 3307,
      "ReWined": 3308,
      "Ġreviews": 3309,
      "Ġyears": 3310,
      "Luciano": 3311,
      "Ralph": 3312,
      "Ġcinema": 3313,
      "ĠHerbert": 3314,
      "Ġlocal": 3315,
      "ĠSharma": 3316,
      "Ã³n": 3317,
      "Rooster": 3318,
      "ravitz": 3319,
      "Houdini": 3320,
      "Hartman": 3321,
      "Julian": 3322,
      "Mattson": 3323,
      "Revva": 3324,
      "ĠRalph": 3325,
      "Ġhandled": 3326,
      "atricia": 3327,
      "ĠProduction": 3328,
      "Ġperforman": 3329,
      "mpic": 3330,
      "Ġfriends": 3331,
      "Ġprison": 3332,
      "ĠFrancis": 3333,
      "Futerman": 3334,
      "Hunting": 3335,
      "Hagins": 3336,
      "Hawk": 3337,
      "Moondram": 3338,
      "Sophie": 3339,
      "Lewis": 3340,
      "Clarkson": 3341,
      "Miraz": 3342,
      "ritics": 3343,
      "amsuzzaman": 3344,
      "Ġpopular": 3345,
      "abharathi": 3346,
      "ĠOlympic": 3347,
      "Ġalongside": 3348,
      "\".": 3349,
      ").": 3350,
      "Bra": 3351,
      "Bob": 3352,
      "Brand": 3353,
      "Buck": 3354,
      "Black": 3355,
      "Belli": 3356,
      "Bazz": 3357,
      "Cohn": 3358,
      "Collins": 3359,
      "Das": 3360,
      "Dill": 3361,
      "Esben": 3362,
      "Far": 3363,
      "Gen": 3364,
      "Gary": 3365,
      "Gene": 3366,
      "Holl": 3367,
      "Hugh": 3368,
      "Juan": 3369,
      "Kath": 3370,
      "Khan": 3371,
      "Kenn": 3372,
      "Lloyd": 3373,
      "Mast": 3374,
      "Mack": 3375,
      "Mac": 3376,
      "Miller": 3377,
      "Nat": 3378,
      "Nit": 3379,
      "Prakash": 3380,
      "Ric": 3381,
      "Rom": 3382,
      "Rash": 3383,
      "Ruth": 3384,
      "Ritup": 3385,
      "Su": 3386,
      "Ser": 3387,
      "Sil": 3388,
      "Susan": 3389,
      "Toni": 3390,
      "Viv": 3391,
      "Vaysberg": 3392,
      "Vanderbilt": 3393,
      "Well": 3394,
      "Wong": 3395,
      "Withers": 3396,
      "Zuk": 3397,
      "Ziering": 3398,
      "dast": 3399,
      "fman": 3400,
      "frid": 3401,
      "hn": 3402,
      "hr": 3403,
      "iu": 3404,
      "ijen": 3405,
      "jred": 3406,
      "kins": 3407,
      "ms": 3408,
      "mar": 3409,
      "min": 3410,
      "mon": 3411,
      "met": 3412,
      "mith": 3413,
      "mohan": 3414,
      "nd": 3415,
      "ois": 3416,
      "rash": 3417,
      "say": 3418,
      "tell": 3419,
      "ura": 3420,
      "vid": 3421,
      "wal": 3422,
      "was": 3423,
      "Ã§": 3424,
      "ÅĤ": 3425,
      "Ńaz": 3426,
      "inmet": 3427,
      "anim": 3428,
      "ales": 3429,
      "alter": 3430,
      "ato": 3431,
      "atthe": 3432,
      "isabeth": 3433,
      "asi": 3434,
      "eshan": 3435,
      "esco": 3436,
      "roft": 3437,
      "amat": 3438,
      "osko": 3439,
      "adan": 3440,
      "adze": 3441,
      "olo": 3442,
      "idget": 3443,
      "oviet": 3444,
      "bersv": 3445,
      "igui": 3446,
      "oore": 3447,
      "otto": 3448,
      "Anthik": 3449,
      "akrishna": 3450,
      "aufman": 3451,
      "thel": 3452,
      "avage": 3453,
      "emary": 3454,
      "emund": 3455,
      "ememb": 3456,
      "Shankar": 3457,
      "ohar": 3458,
      "rance": 3459,
      "rangl": 3460,
      "ifton": 3461,
      "March": 3462,
      "Chris": 3463,
      "iana": 3464,
      "Steve": 3465,
      "utch": 3466,
      "ffer": 3467,
      "Blan": 3468,
      "Johnson": 3469,
      "ishore": 3470,
      "ichter": 3471,
      "ques": 3472,
      "Leon": 3473,
      "Carl": 3474,
      "odd": 3475,
      "inder": 3476,
      "Barb": 3477,
      "Spence": 3478,
      "arkill": 3479,
      "Neil": 3480,
      "Edwin": 3481,
      "Harold": 3482,
      "rishnan": 3483,
      "perin": 3484,
      "form": 3485,
      "ahashi": 3486,
      "Olcott": 3487,
      "GuÃ©diguian": 3488,
      "ancroft": 3489,
      "vira": 3490,
      "Elizabeth": 3491,
      "Martino": 3492,
      "esejred": 3493,
      "Doug": 3494,
      "Williams": 3495,
      "Vince": 3496,
      "Maryus": 3497,
      "Admani": 3498,
      "Shep": 3499,
      "Venk": 3500,
      "Walker": 3501,
      "Joel": 3502,
      "Clifton": 3503,
      "Kashan": 3504,
      "Kitano": 3505,
      "Leslie": 3506,
      "isterhood": 3507,
      "Bernstein": 3508,
      "Hardy": 3509,
      "Abraham": 3510,
      "indisi": 3511,
      "Sharat": 3512,
      "Sharma": 3513,
      "othering": 3514,
      "Willam": 3515,
      "hmare": 3516,
      "ski": 3517,
      "Robbie": 3518,
      "queline": 3519,
      "Brian": 3520,
      "Takeshi": 3521,
      "Ã¶m": 3522,
      "Lockie": 3523,
      "strÃ¶m": 3524,
      "orious": 3525,
      "Dunn": 3526,
      "Jeremy": 3527,
      "Vidhu": 3528,
      "Helen": 3529,
      "Cecil": 3530,
      "Lindsay": 3531,
      "Hollister": 3532,
      "Zukor": 3533,
      "dasta": 3534,
      "animator": 3535,
      "atthew": 3536,
      "bersvende": 3537,
      "emunde": 3538,
      "emembrance": 3539,
      "rangled": 3540,
      "esejrede": 3541,
      "00": 3542,
      "Bre": 3543,
      "Horne": 3544,
      "Kal": 3545,
      "Kee": 3546,
      "Music": 3547,
      "Mey": 3548,
      "Subb": 3549,
      "Vas": 3550,
      "Xia": 3551,
      "ca": 3552,
      "cla": 3553,
      "dan": 3554,
      "day": 3555,
      "dham": 3556,
      "gro": 3557,
      "gav": 3558,
      "hum": 3559,
      "hler": 3560,
      "hala": 3561,
      "hosh": 3562,
      "kin": 3563,
      "kad": 3564,
      "lÃ": 3565,
      "lic": 3566,
      "men": 3567,
      "mese": 3568,
      "nal": 3569,
      "poon": 3570,
      "rving": 3571,
      "sy": 3572,
      "sess": 3573,
      "tro": 3574,
      "tly": 3575,
      "uz": 3576,
      "uart": 3577,
      "ved": 3578,
      "wor": 3579,
      "yar": 3580,
      "yst": 3581,
      "yric": 3582,
      "yffe": 3583,
      "zy": 3584,
      "Ġem": 3585,
      "Ġall": 3586,
      "Ġend": 3587,
      "Ġown": 3588,
      "Ġhel": 3589,
      "aram": 3590,
      "inam": 3591,
      "iness": 3592,
      "anie": 3593,
      "ilante": 3594,
      "reat": 3595,
      "reid": 3596,
      "hed": 3597,
      "hes": 3598,
      "enay": 3599,
      "enne": 3600,
      "enge": 3601,
      "aldi": 3602,
      "atton": 3603,
      "atari": 3604,
      "ischer": 3605,
      "rou": 3606,
      "roy": 3607,
      "amin": 3608,
      "Ġbo": 3609,
      "omen": 3610,
      "elf": 3611,
      "eler": 3612,
      "elug": 3613,
      "elected": 3614,
      "Ġwe": 3615,
      "Ġwork": 3616,
      "itchel": 3617,
      "ĠSy": 3618,
      "ĠSon": 3619,
      "ĠSal": 3620,
      "ĠSet": 3621,
      "ĠSim": 3622,
      "ĠSup": 3623,
      "ĠSwe": 3624,
      "ĠScott": 3625,
      "ĠSathyan": 3626,
      "ĠSubb": 3627,
      "ĠSengupta": 3628,
      "ĠAs": 3629,
      "ĠAri": 3630,
      "ĠAct": 3631,
      "ĠAsh": 3632,
      "adas": 3633,
      "adner": 3634,
      "olan": 3635,
      "olian": 3636,
      "olves": 3637,
      "ĠMr": 3638,
      "ĠMer": 3639,
      "ĠMad": 3640,
      "ĠMort": 3641,
      "ĠMiller": 3642,
      "Ġsl": 3643,
      "Ġsound": 3644,
      "Ġsever": 3645,
      "Ġsecond": 3646,
      "Ġselected": 3647,
      "ough": 3648,
      "ĠBo": 3649,
      "ĠBri": 3650,
      "ĠBas": 3651,
      "ĠBara": 3652,
      "ĠBrow": 3653,
      "ĠTheda": 3654,
      "Ġfinal": 3655,
      "ĠII": 3656,
      "ĠIon": 3657,
      "idu": 3658,
      "ident": 3659,
      "Ġcur": 3660,
      "Ġcare": 3661,
      "Ġcount": 3662,
      "Ġcompany": 3663,
      "Ġcamp": 3664,
      "Ġcult": 3665,
      "Ġcritics": 3666,
      "Ġinst": 3667,
      "ĠPri": 3668,
      "ĠPad": 3669,
      "ĠPoo": 3670,
      "ĠPlay": 3671,
      "ĠPhilip": 3672,
      "ĠPrakash": 3673,
      "irgin": 3674,
      "Ġ1920": 3675,
      "ills": 3676,
      "ĠCas": 3677,
      "ĠCha": 3678,
      "ĠCow": 3679,
      "ĠCompany": 3680,
      "ĠJer": 3681,
      "ĠRoh": 3682,
      "ĠRog": 3683,
      "ĠRudd": 3684,
      "ĠRele": 3685,
      "overs": 3686,
      "ovesi": 3687,
      "igilante": 3688,
      "chandra": 3689,
      "ĠHou": 3690,
      "ĠHun": 3691,
      "ĠHard": 3692,
      "ĠHall": 3693,
      "ĠHell": 3694,
      "ĠTo": 3695,
      "ĠTak": 3696,
      "ĠTelug": 3697,
      "ĠFire": 3698,
      "ĠFeb": 3699,
      "ĠFock": 3700,
      "Ġdep": 3701,
      "Ġdetect": 3702,
      "ionel": 3703,
      "cker": 3704,
      "ĠDis": 3705,
      "ĠDay": 3706,
      "ĠDha": 3707,
      "ĠDav": 3708,
      "ĠDev": 3709,
      "ĠDeb": 3710,
      "ĠDonald": 3711,
      "ĠDallas": 3712,
      "otal": 3713,
      "mann": 3714,
      "manuel": 3715,
      "ĠLes": 3716,
      "ĠLou": 3717,
      "ĠLoc": 3718,
      "ĠLock": 3719,
      "ĠLankan": 3720,
      "ĠGen": 3721,
      "ĠGood": 3722,
      "ĠGirl": 3723,
      "Ġpos": 3724,
      "Ġparty": 3725,
      "Ġprin": 3726,
      "ĠWag": 3727,
      "ĠWild": 3728,
      "ĠWorld": 3729,
      "imer": 3730,
      "imala": 3731,
      "ĠKn": 3732,
      "ĠKo": 3733,
      "ĠKay": 3734,
      "ĠKash": 3735,
      "ĠKong": 3736,
      "ĠKorean": 3737,
      "ardem": 3738,
      "emar": 3739,
      "emps": 3740,
      "apier": 3741,
      "ohith": 3742,
      "shad": 3743,
      "Ġres": 3744,
      "oppol": 3745,
      "ĠNational": 3746,
      "Ġmon": 3747,
      "Ġmore": 3748,
      "ĠEug": 3749,
      "agann": 3750,
      "agui": 3751,
      "essandro": 3752,
      "etti": 3753,
      "Ġlong": 3754,
      "Ġlanguage": 3755,
      "Ġloos": 3756,
      "Ġlyric": 3757,
      "udhan": 3758,
      "ĠOr": 3759,
      "Ġnoir": 3760,
      "Ġnamed": 3761,
      "ffair": 3762,
      "ations": 3763,
      "ationship": 3764,
      "upert": 3765,
      "ĠVal": 3766,
      "Ġ2001": 3767,
      "ishra": 3768,
      "oci": 3769,
      "ebec": 3770,
      "Ġatt": 3771,
      "Ġattem": 3772,
      "ublic": 3773,
      "oyce": 3774,
      "ressack": 3775,
      "ughes": 3776,
      "hero": 3777,
      "ongford": 3778,
      "odern": 3779,
      "oehler": 3780,
      "ruary": 3781,
      "ĠAnne": 3782,
      "ĠCharles": 3783,
      "arious": 3784,
      "inde": 3785,
      "ĠAli": 3786,
      "ĠUS": 3787,
      "amilton": 3788,
      "Ġ1931": 3789,
      "Ġ1935": 3790,
      "ourke": 3791,
      "eeks": 3792,
      "pert": 3793,
      "Ġalong": 3794,
      "yndham": 3795,
      "ĠThomas": 3796,
      "eldham": 3797,
      "âĢĶ": 3798,
      "ized": 3799,
      "aldemar": 3800,
      "Ġ1996": 3801,
      "Ġ1977": 3802,
      "atte": 3803,
      "Ġfeatured": 3804,
      "Ġ1943": 3805,
      "Connor": 3806,
      "haran": 3807,
      "hargav": 3808,
      "taek": 3809,
      "Ġ1924": 3810,
      "Ġ1966": 3811,
      "Ġ1968": 3812,
      "Ġfollowed": 3813,
      "beom": 3814,
      "oorthy": 3815,
      "Ġ1914": 3816,
      "Ġ1985": 3817,
      "Ġ1986": 3818,
      "Ġprot": 3819,
      "Ġproject": 3820,
      "annah": 3821,
      "Ġleading": 3822,
      "ĠRoad": 3823,
      "errari": 3824,
      "Ġdeal": 3825,
      "Ġdeath": 3826,
      "zzi": 3827,
      "Ġvigilante": 3828,
      "Ġnew": 3829,
      "Ġnews": 3830,
      "ĠJackie": 3831,
      "ullen": 3832,
      "Ġactor": 3833,
      "offman": 3834,
      "ĠJosÃ©": 3835,
      "etrov": 3836,
      "ĠAndy": 3837,
      "Ġexplo": 3838,
      "eklÃ": 3839,
      "ĠBluff": 3840,
      "etwork": 3841,
      "karadi": 3842,
      "Sanjay": 3843,
      "derwood": 3844,
      "ammed": 3845,
      "hapram": 3846,
      "Ġrevolves": 3847,
      "ĠChristian": 3848,
      "Ġsuccessful": 3849,
      "Ġcinematography": 3850,
      "ĠRaymond": 3851,
      "akshinam": 3852,
      "Svet": 3853,
      "Ġartist": 3854,
      "Ġopen": 3855,
      "Ġteam": 3856,
      "ĠBurmese": 3857,
      "ĠJulian": 3858,
      "Ġtheatres": 3859,
      "Ġincluding": 3860,
      "Ġincludes": 3861,
      "untier": 3862,
      "Ġentry": 3863,
      "Ġsexual": 3864,
      "ĠHeart": 3865,
      "ĠHoward": 3866,
      "Ġmarks": 3867,
      "Ġsuperhero": 3868,
      "brook": 3869,
      "ological": 3870,
      "Ġremade": 3871,
      "Ġdiscover": 3872,
      "ographical": 3873,
      "aithapram": 3874,
      "Ġhave": 3875,
      "heerlead": 3876,
      "ĠSinhala": 3877,
      "ĠCannes": 3878,
      "Ġdevelop": 3879,
      "ĠGonzaga": 3880,
      "Ġrelationship": 3881,
      "ĠNinja": 3882,
      "Ġmurder": 3883,
      "Ġadventure": 3884,
      "Ġoriginally": 3885,
      "Ġperformance": 3886,
      "Keefe": 3887,
      "Xiaolian": 3888,
      "ground": 3889,
      "worth": 3890,
      "atariya": 3891,
      "itchell": 3892,
      "ĠSwedish": 3893,
      "ĠBrown": 3894,
      "irginia": 3895,
      "ĠTelugu": 3896,
      "ĠFebruary": 3897,
      "ohithadas": 3898,
      "oppola": 3899,
      "agannadh": 3900,
      "aguirou": 3901,
      "Ġloosely": 3902,
      "Ġlyrics": 3903,
      "ffairs": 3904,
      "ebecca": 3905,
      "Ġattemp": 3906,
      "hargava": 3907,
      "eklÃ½": 3908,
      "akshinamoorthy": 3909,
      "95": 3910,
      "Aar": 3911,
      "Ash": 3912,
      "Aung": 3913,
      "Bir": 3914,
      "Ball": 3915,
      "Bald": 3916,
      "Bowery": 3917,
      "Battle": 3918,
      "Bancroft": 3919,
      "Co": 3920,
      "Cob": 3921,
      "Cook": 3922,
      "Corm": 3923,
      "Corn": 3924,
      "Cumm": 3925,
      "Dog": 3926,
      "Duke": 3927,
      "Daze": 3928,
      "Eric": 3929,
      "Eva": 3930,
      "Einmet": 3931,
      "Fit": 3932,
      "Flock": 3933,
      "Fudge": 3934,
      "Foster": 3935,
      "Ge": 3936,
      "Gan": 3937,
      "Gast": 3938,
      "Grave": 3939,
      "Grant": 3940,
      "Ha": 3941,
      "Hy": 3942,
      "Hari": 3943,
      "Hour": 3944,
      "Hans": 3945,
      "Hideo": 3946,
      "Hammer": 3947,
      "If": 3948,
      "Ila": 3949,
      "Jun": 3950,
      "Judy": 3951,
      "Kou": 3952,
      "Kap": 3953,
      "Kishore": 3954,
      "Lal": 3955,
      "Lav": 3956,
      "Less": 3957,
      "Lance": 3958,
      "Levin": 3959,
      "Lerner": 3960,
      "Little": 3961,
      "Mic": 3962,
      "Midget": 3963,
      "Moore": 3964,
      "Mothering": 3965,
      "Matthew": 3966,
      "Nish": 3967,
      "Nya": 3968,
      "Nedumudi": 3969,
      "Nazir": 3970,
      "Nossiter": 3971,
      "Ot": 3972,
      "Pil": 3973,
      "Popescu": 3974,
      "Ren": 3975,
      "Rac": 3976,
      "Richter": 3977,
      "Remembrance": 3978,
      "Sri": 3979,
      "Sith": 3980,
      "Saw": 3981,
      "Suk": 3982,
      "Savage": 3983,
      "Sisterhood": 3984,
      "Te": 3985,
      "Tam": 3986,
      "Taube": 3987,
      "Uri": 3988,
      "Use": 3989,
      "Va": 3990,
      "Vik": 3991,
      "Wang": 3992,
      "Worne": 3993,
      "Woody": 3994,
      "Wright": 3995,
      "Warkill": 3996,
      "Ye": 3997,
      "Yos": 3998,
      "YÅį": 3999,
      "Zohar": 4000,
      "aire": 4001,
      "bau": 4002,
      "besejrede": 4003,
      "ci": 4004,
      "dun": 4005,
      "dney": 4006,
      "git": 4007,
      "hart": 4008,
      "jana": 4009,
      "jinder": 4010,
      "kamp": 4011,
      "kanda": 4012,
      "lu": 4013,
      "mine": 4014,
      "pine": 4015,
      "uw": 4016,
      "uis": 4017,
      "wart": 4018,
      "ys": 4019,
      "yas": 4020,
      "yles": 4021,
      "aro": 4022,
      "aros": 4023,
      "arun": 4024,
      "arov": 4025,
      "araj": 4026,
      "anel": 4027,
      "oru": 4028,
      "enter": 4029,
      "ried": 4030,
      "ando": 4031,
      "anding": 4032,
      "Their": 4033,
      "ederik": 4034,
      "issh": 4035,
      "ason": 4036,
      "asud": 4037,
      "asinghe": 4038,
      "asdun": 4039,
      "ambi": 4040,
      "omkamp": 4041,
      "itra": 4042,
      "etu": 4043,
      "oli": 4044,
      "radi": 4045,
      "rael": 4046,
      "ould": 4047,
      "hadi": 4048,
      "2005": 4049,
      "bery": 4050,
      "ladi": 4051,
      "lage": 4052,
      "ooth": 4053,
      "oto": 4054,
      "aki": 4055,
      "akum": 4056,
      "akish": 4057,
      "iew": 4058,
      "imura": 4059,
      "abu": 4060,
      "enta": 4061,
      "athis": 4062,
      "emini": 4063,
      "Shiva": 4064,
      "Shallow": 4065,
      "Shindisi": 4066,
      "sher": 4067,
      "ranger": 4068,
      "ully": 4069,
      "2011": 4070,
      "Third": 4071,
      "Things": 4072,
      "ithra": 4073,
      "Strangled": 4074,
      "ogart": 4075,
      "hiaki": 4076,
      "eps": 4077,
      "Measure": 4078,
      "Bloody": 4079,
      "Blomkamp": 4080,
      "Bigger": 4081,
      "Johnnie": 4082,
      "icholas": 4083,
      "Manmohan": 4084,
      "ubin": 4085,
      "ugi": 4086,
      "scar": 4087,
      "Goodman": 4088,
      "ains": 4089,
      "aint": 4090,
      "aines": 4091,
      "Myu": 4092,
      "uresh": 4093,
      "Leaves": 4094,
      "Leopard": 4095,
      "ipman": 4096,
      "iera": 4097,
      "ierney": 4098,
      "aja": 4099,
      "ario": 4100,
      "FranÃ§": 4101,
      "Barnet": 4102,
      "Edgar": 4103,
      "Small": 4104,
      "Parvathy": 4105,
      "Guigui": 4106,
      "okesh": 4107,
      "Rose": 4108,
      "Rosas": 4109,
      "Rosemary": 4110,
      "Murder": 4111,
      "Diederik": 4112,
      "Elisabeth": 4113,
      "Elvira": 4114,
      "Christopher": 4115,
      "ghton": 4116,
      "Valent": 4117,
      "Laurence": 4118,
      "Heather": 4119,
      "araaja": 4120,
      "Notorious": 4121,
      "Club": 4122,
      "Rajan": 4123,
      "Rajkumar": 4124,
      "tempor": 4125,
      "Lawrence": 4126,
      "Montgomery": 4127,
      "Tomorrow": 4128,
      "Gregorio": 4129,
      "DÃŃaz": 4130,
      "Peters": 4131,
      "Franco": 4132,
      "Merlin": 4133,
      "Debi": 4134,
      "Greenfield": 4135,
      "Mayer": 4136,
      "warakish": 4137,
      "Melford": 4138,
      "Raman": 4139,
      "rasse": 4140,
      "Schle": 4141,
      "Claudio": 4142,
      "Nagavalli": 4143,
      "umang": 4144,
      "Waghmare": 4145,
      "Showalter": 4146,
      "Salce": 4147,
      "Takahashi": 4148,
      "itchum": 4149,
      "Christiansen": 4150,
      "Halperin": 4151,
      "Ionesco": 4152,
      "Jacques": 4153,
      "Rooijen": 4154,
      "uviera": 4155,
      "arnani": 4156,
      "Duncan": 4157,
      "Warner": 4158,
      "Makar": 4159,
      "Makhmalbaf": 4160,
      "Saha": 4161,
      "adhavan": 4162,
      "Earl": 4163,
      "Eugen": 4164,
      "Guldasta": 4165,
      "Lange": 4166,
      "iyaraaja": 4167,
      "Mukherji": 4168,
      "Ravana": 4169,
      "Biswas": 4170,
      "Bademunde": 4171,
      "Kopp": 4172,
      "Moss": 4173,
      "Pebersvende": 4174,
      "Randall": 4175,
      "Wilfrid": 4176,
      "Swapna": 4177,
      "nds": 4178,
      "adanar": 4179,
      "thels": 4180,
      "Aaron": 4181,
      "Cormick": 4182,
      "Ilaiyaraaja": 4183,
      "Lesser": 4184,
      "Nishimura": 4185,
      "Srijit": 4186,
      "Sithara": 4187,
      "Sawtell": 4188,
      "Yoshiaki": 4189,
      "baum": 4190,
      "yasagar": 4191,
      "aroslav": 4192,
      "isshu": 4193,
      "FranÃ§ois": 4194,
      "temporary": 4195,
      "!_": 4196,
      ".,": 4197,
      "Ay": 4198,
      "Ast": 4199,
      "August": 4200,
      "ATM": 4201,
      "Bel": 4202,
      "Bash": 4203,
      "Byr": 4204,
      "Bennett": 4205,
      "Bardem": 4206,
      "Bressack": 4207,
      "Bhargava": 4208,
      "Cast": 4209,
      "Canton": 4210,
      "Caine": 4211,
      "Campbell": 4212,
      "Cullen": 4213,
      "Coppola": 4214,
      "Dan": 4215,
      "Dra": 4216,
      "Dwan": 4217,
      "Dakshinamoorthy": 4218,
      "Ei": 4219,
      "Ep": 4220,
      "Eve": 4221,
      "Erik": 4222,
      "Fin": 4223,
      "Fritz": 4224,
      "Fields": 4225,
      "Figu": 4226,
      "Fuller": 4227,
      "Ferrari": 4228,
      "GM": 4229,
      "Gay": 4230,
      "Gib": 4231,
      "Ghosh": 4232,
      "Hor": 4233,
      "Hay": 4234,
      "Henn": 4235,
      "Haz": 4236,
      "Hui": 4237,
      "Holt": 4238,
      "Hrithik": 4239,
      "Hlaing": 4240,
      "Hughes": 4241,
      "Hamilton": 4242,
      "Hoffman": 4243,
      "Ian": 4244,
      "IÃ±": 4245,
      "Irving": 4246,
      "Ji": 4247,
      "Just": 4248,
      "Jenn": 4249,
      "Joby": 4250,
      "Jake": 4251,
      "Jordan": 4252,
      "Joyce": 4253,
      "Jagannadh": 4254,
      "KO": 4255,
      "Kos": 4256,
      "Kun": 4257,
      "Krist": 4258,
      "Kerr": 4259,
      "Koch": 4260,
      "Kurt": 4261,
      "Kannada": 4262,
      "Kwak": 4263,
      "Kravitz": 4264,
      "Kaithapram": 4265,
      "Katariya": 4266,
      "Lev": 4267,
      "Larry": 4268,
      "Lowe": 4269,
      "Lionel": 4270,
      "Longford": 4271,
      "Mu": 4272,
      "Mir": 4273,
      "Mill": 4274,
      "Mall": 4275,
      "Mess": 4276,
      "Mohanlal": 4277,
      "MÃ¼ller": 4278,
      "Maureen": 4279,
      "Mickey": 4280,
      "Mishra": 4281,
      "Mitchell": 4282,
      "Nai": 4283,
      "Nick": 4284,
      "Niro": 4285,
      "Nils": 4286,
      "Napier": 4287,
      "Osb": 4288,
      "Owen": 4289,
      "Pl": 4290,
      "Pam": 4291,
      "Pran": 4292,
      "Page": 4293,
      "Peng": 4294,
      "Puri": 4295,
      "Prasad": 4296,
      "Patricia": 4297,
      "Petrov": 4298,
      "Ra": 4299,
      "Rat": 4300,
      "Roh": 4301,
      "Rud": 4302,
      "Ritch": 4303,
      "Redford": 4304,
      "Rekha": 4305,
      "Radner": 4306,
      "Rourke": 4307,
      "Rebecca": 4308,
      "Sen": 4309,
      "Sel": 4310,
      "Sig": 4311,
      "Sver": 4312,
      "Sengupta": 4313,
      "Sedgwick": 4314,
      "Siegel": 4315,
      "Saguirou": 4316,
      "Ty": 4317,
      "Top": 4318,
      "Trem": 4319,
      "Terry": 4320,
      "Todd": 4321,
      "Vasan": 4322,
      "Victor": 4323,
      "Virginia": 4324,
      "Woo": 4325,
      "Wim": 4326,
      "Wall": 4327,
      "Wain": 4328,
      "Wayne": 4329,
      "Wenders": 4330,
      "Weeks": 4331,
      "Wyndham": 4332,
      "Yau": 4333,
      "Yeldham": 4334,
      "Zan": 4335,
      "ZoÃ«": 4336,
      "_'": 4337,
      "aign": 4338,
      "bas": 4339,
      "bel": 4340,
      "bus": 4341,
      "bot": 4342,
      "ball": 4343,
      "boy": 4344,
      "cy": 4345,
      "cle": 4346,
      "cast": 4347,
      "cock": 4348,
      "ders": 4349,
      "eau": 4350,
      "fers": 4351,
      "fore": 4352,
      "friend": 4353,
      "gle": 4354,
      "gian": 4355,
      "gher": 4356,
      "ghan": 4357,
      "gins": 4358,
      "iov": 4359,
      "iod": 4360,
      "irit": 4361,
      "ially": 4362,
      "iÄĩ": 4363,
      "iographical": 4364,
      "jp": 4365,
      "jandro": 4366,
      "jamin": 4367,
      "ky": 4368,
      "lop": 4369,
      "lett": 4370,
      "line": 4371,
      "life": 4372,
      "med": 4373,
      "mall": 4374,
      "mut": 4375,
      "mik": 4376,
      "mely": 4377,
      "mstr": 4378,
      "maurice": 4379,
      "oa": 4380,
      "oj": 4381,
      "pe": 4382,
      "pr": 4383,
      "pap": 4384,
      "pure": 4385,
      "pical": 4386,
      "pted": 4387,
      "rÃ": 4388,
      "rut": 4389,
      "rrish": 4390,
      "rrit": 4391,
      "rata": 4392,
      "sell": 4393,
      "sai": 4394,
      "te": 4395,
      "tra": 4396,
      "ux": 4397,
      "zquez": 4398,
      "ÃŃ": 4399,
      "Äį": 4400,
      "ÅĦ": 4401,
      "ãĥ": 4402,
      "Ġ$": 4403,
      "Ġ&": 4404,
      "Ġ4": 4405,
      "ĠÃ": 4406,
      "Ġle": 4407,
      "Ġest": 4408,
      "Ġqu": 4409,
      "Ġvi": 4410,
      "Ġvan": 4411,
      "ĠQueen": 4412,
      "ĠTexas": 4413,
      "Ġlast": 4414,
      "Ġearn": 4415,
      "Ġident": 4416,
      "eral": 4417,
      "eramat": 4418,
      "eroa": 4419,
      "arian": 4420,
      "inator": 4421,
      "anan": 4422,
      "strand": 4423,
      "ilar": 4424,
      "ilov": 4425,
      "ilakan": 4426,
      "reak": 4427,
      "rell": 4428,
      "hey": 4429,
      "oram": 4430,
      "enes": 4431,
      "riter": 4432,
      "alog": 4433,
      "althy": 4434,
      "andari": 4435,
      "andworth": 4436,
      "Theodore": 4437,
      "Ġtry": 4438,
      "Ġtell": 4439,
      "Ġtru": 4440,
      "Ġtime": 4441,
      "ati": 4442,
      "aser": 4443,
      "asha": 4444,
      "aspure": 4445,
      "roll": 4446,
      "amang": 4447,
      "ambe": 4448,
      "amera": 4449,
      "Ġbl": 4450,
      "Ġbu": 4451,
      "Ġbest": 4452,
      "Ġboy": 4453,
      "Ġbask": 4454,
      "Ġbiographical": 4455,
      "omes": 4456,
      "Ġaudi": 4457,
      "Ġthem": 4458,
      "Ġtheatric": 4459,
      "Ġwill": 4460,
      "Ġwent": 4461,
      "Ġwhen": 4462,
      "Ġwrestling": 4463,
      "Ġworld": 4464,
      "Ġwriter": 4465,
      "itha": 4466,
      "ities": 4467,
      "itive": 4468,
      "ithey": 4469,
      "etendra": 4470,
      "etball": 4471,
      "ĠSa": 4472,
      "ĠSer": 4473,
      "ĠSil": 4474,
      "ĠSat": 4475,
      "ĠSch": 4476,
      "ĠShi": 4477,
      "ĠSto": 4478,
      "ĠSeb": 4479,
      "ĠSoe": 4480,
      "ĠSeven": 4481,
      "ĠSachin": 4482,
      "ĠSquare": 4483,
      "ĠSoviet": 4484,
      "ĠAst": 4485,
      "writt": 4486,
      "adette": 4487,
      "adcast": 4488,
      "oly": 4489,
      "ĠMin": 4490,
      "ĠMor": 4491,
      "ĠMic": 4492,
      "ĠMos": 4493,
      "ĠMex": 4494,
      "ĠMun": 4495,
      "ĠMak": 4496,
      "ĠMoe": 4497,
      "ĠMovie": 4498,
      "ĠMah": 4499,
      "ĠMidsomer": 4500,
      "ĠMetro": 4501,
      "ĠMira": 4502,
      "ĠMaurice": 4503,
      "ĠMohanlal": 4504,
      "ĠMÃ¼ller": 4505,
      "ĠMGM": 4506,
      "rain": 4507,
      "race": 4508,
      "Ġso": 4509,
      "Ġsim": 4510,
      "Ġserv": 4511,
      "Ġsix": 4512,
      "Ġsyst": 4513,
      "Ġsmall": 4514,
      "ourit": 4515,
      "ouple": 4516,
      "ĠBen": 4517,
      "ĠBra": 4518,
      "ĠBou": 4519,
      "ĠBoy": 4520,
      "ĠBudd": 4521,
      "ĠBarb": 4522,
      "ĠBakk": 4523,
      "ĠBlack": 4524,
      "ĠBho": 4525,
      "ĠBaxter": 4526,
      "ĠBosko": 4527,
      "thal": 4528,
      "thriller": 4529,
      "Ġfem": 4530,
      "Ġfall": 4531,
      "Ġfut": 4532,
      "Ġfight": 4533,
      "Ġfull": 4534,
      "Ġfamous": 4535,
      "Ġflop": 4536,
      "ĠIreland": 4537,
      "musician": 4538,
      "Ġcol": 4539,
      "Ġcomp": 4540,
      "Ġcent": 4541,
      "Ġcart": 4542,
      "Ġcolla": 4543,
      "Ġcity": 4544,
      "Ġcamera": 4545,
      "Ġcouple": 4546,
      "urdish": 4547,
      "Ġinv": 4548,
      "Ġindi": 4549,
      "Ġinternational": 4550,
      "haÅĤ": 4551,
      "ĠPer": 4552,
      "ĠPage": 4553,
      "ĠPriya": 4554,
      "ĠPrasad": 4555,
      "irup": 4556,
      "iruv": 4557,
      "irÅį": 4558,
      "unist": 4559,
      "illing": 4560,
      "ĠCre": 4561,
      "ĠChan": 4562,
      "ĠCana": 4563,
      "ĠCze": 4564,
      "ĠJr": 4565,
      "ĠJim": 4566,
      "ĠJoe": 4567,
      "ĠRic": 4568,
      "ĠRom": 4569,
      "ĠRoo": 4570,
      "ĠRav": 4571,
      "ĠRev": 4572,
      "ĠRey": 4573,
      "ĠRod": 4574,
      "ĠRock": 4575,
      "ĠRuth": 4576,
      "ĠRKO": 4577,
      "owan": 4578,
      "ovak": 4579,
      "ighan": 4580,
      "chlin": 4581,
      "chita": 4582,
      "chosl": 4583,
      "chological": 4584,
      "ĠHop": 4585,
      "ĠHai": 4586,
      "ĠHapp": 4587,
      "ĠHung": 4588,
      "ĠTe": 4589,
      "ĠTre": 4590,
      "ĠToni": 4591,
      "ĠTali": 4592,
      "ĠTurk": 4593,
      "ĠFor": 4594,
      "ĠFore": 4595,
      "ĠFeat": 4596,
      "ĠFirst": 4597,
      "ĠFritz": 4598,
      "ĠFudge": 4599,
      "Ġdark": 4600,
      "ootty": 4601,
      "ĠDr": 4602,
      "ĠDar": 4603,
      "ĠDel": 4604,
      "ĠDaniel": 4605,
      "ĠDennis": 4606,
      "ĠDevi": 4607,
      "ĠDiana": 4608,
      "mant": 4609,
      "ĠLan": 4610,
      "ĠLand": 4611,
      "ĠLuc": 4612,
      "ĠLet": 4613,
      "ĠLife": 4614,
      "ĠLind": 4615,
      "ĠLew": 4616,
      "ĠLynne": 4617,
      "ĠLatif": 4618,
      "ĠLogan": 4619,
      "ĠGan": 4620,
      "ĠGet": 4621,
      "ĠGene": 4622,
      "ĠGreg": 4623,
      "ĠGilbert": 4624,
      "ĠGilda": 4625,
      "ĠGreat": 4626,
      "neider": 4627,
      "Anton": 4628,
      "ief": 4629,
      "Ġpol": 4630,
      "Ġpiv": 4631,
      "Ġpict": 4632,
      "Ġperson": 4633,
      "Ġpsy": 4634,
      "ĠWat": 4635,
      "ĠWas": 4636,
      "ĠWritten": 4637,
      "ĠWork": 4638,
      "ĠWhit": 4639,
      "ĠWhile": 4640,
      "avia": 4641,
      "avourit": 4642,
      "ĠKar": 4643,
      "ĠKos": 4644,
      "ĠKill": 4645,
      "ĠKrishna": 4646,
      "ĠKaufman": 4647,
      "ĠKrrish": 4648,
      "ĠKurdish": 4649,
      "emor": 4650,
      "Shiv": 4651,
      "Shik": 4652,
      "Shann": 4653,
      "Shroff": 4654,
      "Shamsuzzaman": 4655,
      "Ġhow": 4656,
      "Ġhouse": 4657,
      "Ġhist": 4658,
      "Ġhome": 4659,
      "Ġrefer": 4660,
      "Ġrefers": 4661,
      "ulp": 4662,
      "ulberg": 4663,
      "ophe": 4664,
      "ifstrand": 4665,
      "ĠNic": 4666,
      "ĠNick": 4667,
      "ĠNaveen": 4668,
      "ĠNedumudi": 4669,
      "Ġme": 4670,
      "Ġmar": 4671,
      "Ġmay": 4672,
      "Ġmot": 4673,
      "Ġmust": 4674,
      "Ġmob": 4675,
      "Ġmost": 4676,
      "Ġmember": 4677,
      "Thilakan": 4678,
      "ryl": 4679,
      "Maril": 4680,
      "Marion": 4681,
      "Marvin": 4682,
      "Rogers": 4683,
      "ĠEain": 4684,
      "ĠEvel": 4685,
      "ĠEric": 4686,
      "ĠEmm": 4687,
      "Chuck": 4688,
      "Alessandro": 4689,
      "Steven": 4690,
      "Stef": 4691,
      "Stuart": 4692,
      "SteklÃ½": 4693,
      "ages": 4694,
      "aghav": 4695,
      "onda": 4696,
      "ogior": 4697,
      "nahan": 4698,
      "Ġnumber": 4699,
      "Ġnetwork": 4700,
      "ants": 4701,
      "antine": 4702,
      "antlal": 4703,
      "Ġcoming": 4704,
      "Blanc": 4705,
      "ordinator": 4706,
      "Ġformer": 4707,
      "ĠVe": 4708,
      "Johnny": 4709,
      "orteau": 4710,
      "Ġthere": 4711,
      "Ġthird": 4712,
      "occ": 4713,
      "ichirÅį": 4714,
      "aiah": 4715,
      "Mank": 4716,
      "Manoj": 4717,
      "awla": 4718,
      "ebe": 4719,
      "uben": 4720,
      "annel": 4721,
      "Ġwithin": 4722,
      "Andr": 4723,
      "Ã©e": 4724,
      "Amudhan": 4725,
      "ipasha": 4726,
      "Carr": 4727,
      "Carroll": 4728,
      "Carnahan": 4729,
      "ĠStar": 4730,
      "ĠStory": 4731,
      "ĠStrange": 4732,
      "ĠSteven": 4733,
      "ody": 4734,
      "ajid": 4735,
      "oechlin": 4736,
      "ĠAng": 4737,
      "ĠAnn": 4738,
      "ĠAnthony": 4739,
      "ĠChildren": 4740,
      "ĠChandra": 4741,
      "ĠChopra": 4742,
      "Ġanother": 4743,
      "Ġstudio": 4744,
      "ĠAlfred": 4745,
      "ĠUd": 4746,
      "Arl": 4747,
      "Arjun": 4748,
      "uki": 4749,
      "ukone": 4750,
      "ĠShow": 4751,
      "ĠShanghai": 4752,
      "Eddie": 4753,
      "Edvin": 4754,
      "icts": 4755,
      "Ġshows": 4756,
      "Hara": 4757,
      "Allan": 4758,
      "Ġ1932": 4759,
      "Ġ1938": 4760,
      "Ġ1939": 4761,
      "Ġbefore": 4762,
      "Ġbegins": 4763,
      "Malam": 4764,
      "Ġgo": 4765,
      "Ġgames": 4766,
      "Ġgirl": 4767,
      "ĠThin": 4768,
      "sein": 4769,
      "DeMille": 4770,
      "Ing": 4771,
      "zanne": 4772,
      "Ã¡ky": 4773,
      "Ã¡rrit": 4774,
      "Ã¡zquez": 4775,
      "Ġdialog": 4776,
      "Ġscenes": 4777,
      "tsev": 4778,
      "Rosen": 4779,
      "Ġ10": 4780,
      "Ġ14": 4781,
      "ĠMarry": 4782,
      "Jeong": 4783,
      "vious": 4784,
      "Eli": 4785,
      "Elmer": 4786,
      "Elise": 4787,
      "Christophe": 4788,
      "Casey": 4789,
      "Sama": 4790,
      "Ġ24": 4791,
      "Ġ29": 4792,
      "aldev": 4793,
      "Berra": 4794,
      "Bertram": 4795,
      "Ġ1995": 4796,
      "Ġ1999": 4797,
      "sserman": 4798,
      "Ġ1970": 4799,
      "Ġ1972": 4800,
      "Ġ1976": 4801,
      "Ġ1978": 4802,
      "ĠYog": 4803,
      "Ġ1942": 4804,
      "Ġ1944": 4805,
      "Ġ1946": 4806,
      "Ġ1947": 4807,
      "Franklin": 4808,
      "Conrad": 4809,
      "Desmond": 4810,
      "Henri": 4811,
      "Henreid": 4812,
      "Ġ1921": 4813,
      "Ġ1926": 4814,
      "Ġ1955": 4815,
      "Ġ1957": 4816,
      "Ġ1959": 4817,
      "Ġromance": 4818,
      "ĠArmstr": 4819,
      "Ġ1960": 4820,
      "Ġ1963": 4821,
      "ĠEddie": 4822,
      "ĠEdmund": 4823,
      "Ġshorts": 4824,
      "othu": 4825,
      "othar": 4826,
      "othern": 4827,
      "othamang": 4828,
      "Sheela": 4829,
      "Wallace": 4830,
      "ĠParvathy": 4831,
      "Ġ1913": 4832,
      "Ġ1917": 4833,
      "Ġ1989": 4834,
      "Siddique": 4835,
      "makers": 4836,
      "Alejandro": 4837,
      "Chak": 4838,
      "Lyle": 4839,
      "psie": 4840,
      "wegian": 4841,
      "Clive": 4842,
      "Sonali": 4843,
      "ornebus": 4844,
      "Vera": 4845,
      "rowing": 4846,
      "ĠDeep": 4847,
      "athias": 4848,
      "Jayan": 4849,
      "Jayabharathi": 4850,
      "Jayaram": 4851,
      "McG": 4852,
      "McHenry": 4853,
      "zzogior": 4854,
      "Ġvarious": 4855,
      "Ġtitled": 4856,
      "Ġneigh": 4857,
      "ĠJackson": 4858,
      "Gregson": 4859,
      "Ernest": 4860,
      "Maurice": 4861,
      "Whitaker": 4862,
      "Kyung": 4863,
      "Ġacting": 4864,
      "Ġactors": 4865,
      "ĠUnivers": 4866,
      "Mori": 4867,
      "Morrow": 4868,
      "ashik": 4869,
      "ĠMeet": 4870,
      "ĠSiddique": 4871,
      "ĠSiddiqui": 4872,
      "ĠAndroid": 4873,
      "Madha": 4874,
      "Andrey": 4875,
      "Abbas": 4876,
      "Karl": 4877,
      "Karen": 4878,
      "Karel": 4879,
      "Ġeach": 4880,
      "Ġexp": 4881,
      "Greenwood": 4882,
      "Grandon": 4883,
      "Ġtake": 4884,
      "Ġtaken": 4885,
      "Ġchild": 4886,
      "ĠRoshan": 4887,
      "ĠRajan": 4888,
      "ĠRajkumar": 4889,
      "Ġpremiere": 4890,
      "Jeanie": 4891,
      "Glenn": 4892,
      "itzmaurice": 4893,
      "ĠConrad": 4894,
      "ĠJean": 4895,
      "Ġprevious": 4896,
      "Melissa": 4897,
      "Melville": 4898,
      "Sankaradi": 4899,
      "ammad": 4900,
      "ammootty": 4901,
      "Ġperiod": 4902,
      "Robin": 4903,
      "Brendan": 4904,
      "Corman": 4905,
      "Schulberg": 4906,
      "Bhow": 4907,
      "Bhatt": 4908,
      "Claud": 4909,
      "Claude": 4910,
      "Darryl": 4911,
      "Emma": 4912,
      "Fredric": 4913,
      "Nagendra": 4914,
      "Reese": 4915,
      "Ġjo": 4916,
      "Ġjust": 4917,
      "Ġjour": 4918,
      "Ġdirectorial": 4919,
      "ĠMurali": 4920,
      "Ġcharacters": 4921,
      "Jeffries": 4922,
      "Francisco": 4923,
      "Ralston": 4924,
      "hoi": 4925,
      "ĠMahendra": 4926,
      "Ġspirit": 4927,
      "ĠClark": 4928,
      "Ġlocation": 4929,
      "ĠEdwards": 4930,
      "Mukesh": 4931,
      "Keith": 4932,
      "Sven": 4933,
      "Ġoper": 4934,
      "Ġteacher": 4935,
      "ĠBros": 4936,
      "ĠNorwegian": 4937,
      "ĠOliver": 4938,
      "ĠOlcott": 4939,
      "ritzen": 4940,
      "Gopi": 4941,
      "Warhol": 4942,
      "Ġbroadcast": 4943,
      "Ġacross": 4944,
      "ĠSmith": 4945,
      "Ġ186": 4946,
      "ĠProduc": 4947,
      "Morton": 4948,
      "Underwood": 4949,
      "Ġenter": 4950,
      "ĠBruce": 4951,
      "ĠClaire": 4952,
      "ĠDouglas": 4953,
      "ĠLawrence": 4954,
      "ĠKyaw": 4955,
      "ĠErnest": 4956,
      "ĠEarle": 4957,
      "Ġcomedic": 4958,
      "Balu": 4959,
      "Eugene": 4960,
      "Gulzar": 4961,
      "avanaugh": 4962,
      "Mukherjee": 4963,
      "Gauntier": 4964,
      "Sylv": 4965,
      "Ġteenag": 4966,
      "Ġteenage": 4967,
      "ĠMukher": 4968,
      "ĠBernard": 4969,
      "Ġclos": 4970,
      "iguoro": 4971,
      "ĠTrail": 4972,
      "umberston": 4973,
      "Ġassoci": 4974,
      "ĠVenice": 4975,
      "Bradley": 4976,
      "ckenridge": 4977,
      "Latifah": 4978,
      "ozilov": 4979,
      "Ġobsess": 4980,
      "ditya": 4981,
      "Ġturns": 4982,
      "Ġbackground": 4983,
      "ĠAfghan": 4984,
      "ĠCanada": 4985,
      "ĠJacqueline": 4986,
      "ĠRussian": 4987,
      "ĠLady": 4988,
      "Ġediting": 4989,
      "Ã³nika": 4990,
      "ĠProductions": 4991,
      "Bobby": 4992,
      "Dillon": 4993,
      "Farley": 4994,
      "Genovesi": 4995,
      "Kennedy": 4996,
      "Nitin": 4997,
      "Rashida": 4998,
      "Rituparno": 4999,
      "Suzanne": 5000,
      "Sergio": 5001,
      "Witherspoon": 5002,
      "Anthikkad": 5003,
      "Blanch": 5004,
      "Barbara": 5005,
      "Shepard": 5006,
      "Venkat": 5007,
      "claim": 5008,
      "zyÅĦ": 5009,
      "Ġwealthy": 5010,
      "ĠActress": 5011,
      "Ġseveral": 5012,
      "Ġcountry": 5013,
      "Ġcampaign": 5014,
      "ĠPoopsie": 5015,
      "Ġdepicts": 5016,
      "Ġdetective": 5017,
      "ĠLouis": 5018,
      "Ġpositive": 5019,
      "empsey": 5020,
      "ĠEugene": 5021,
      "Ġattend": 5022,
      "Ġnewspap": 5023,
      "heerleaders": 5024,
      "Ġrelationships": 5025,
      "Epstein": 5026,
      "Figueroa": 5027,
      "IÃ±Ã¡rrit": 5028,
      "Malleson": 5029,
      "Rudolph": 5030,
      "Ritchie": 5031,
      "Sverre": 5032,
      "Tyler": 5033,
      "Zanuck": 5034,
      "iovanna": 5035,
      "jpuri": 5036,
      "melyov": 5037,
      "prine": 5038,
      "ÃŃctor": 5039,
      "Ġtells": 5040,
      "Ġtrue": 5041,
      "ambeeshan": 5042,
      "Ġbasketball": 5043,
      "ĠSebast": 5044,
      "written": 5045,
      "ĠMexican": 5046,
      "Ġsystem": 5047,
      "ĠBhojpuri": 5048,
      "Ġfuture": 5049,
      "Ġcartoon": 5050,
      "Ġcollabor": 5051,
      "iruvothu": 5052,
      "ĠCanadian": 5053,
      "ĠCzechosl": 5054,
      "ĠTaliban": 5055,
      "ĠLewis": 5056,
      "Ġpivotal": 5057,
      "Ġpicture": 5058,
      "Ġpersonal": 5059,
      "Ġpsychological": 5060,
      "avourite": 5061,
      "Shannon": 5062,
      "Ġhistor": 5063,
      "aghavendra": 5064,
      "orteaux": 5065,
      "ssermann": 5066,
      "ĠArmstrong": 5067,
      "othamangalam": 5068,
      "ornebusch": 5069,
      "zzogiorno": 5070,
      "Ġneighbor": 5071,
      "ĠUniversal": 5072,
      "ozilovÃ¡": 5073,
      "zyÅĦski": 5074,
      "IÃ±Ã¡rritu": 5075,
      "ĠCzechoslovak": 5076,
      "Av": 5077,
      "Bogart": 5078,
      "Can": 5079,
      "Crash": 5080,
      "Dow": 5081,
      "Dusty": 5082,
      "Kel": 5083,
      "Loc": 5084,
      "Lenn": 5085,
      "MX": 5086,
      "Ran": 5087,
      "Sotto": 5088,
      "Saint": 5089,
      "Whe": 5090,
      "Xim": 5091,
      "ao": 5092,
      "aq": 5093,
      "aus": 5094,
      "aol": 5095,
      "ahan": 5096,
      "abery": 5097,
      "bn": 5098,
      "bur": 5099,
      "bag": 5100,
      "bone": 5101,
      "bhav": 5102,
      "bahan": 5103,
      "che": 5104,
      "coe": 5105,
      "cenzo": 5106,
      "comedy": 5107,
      "das": 5108,
      "ddin": 5109,
      "ehr": 5110,
      "fia": 5111,
      "falla": 5112,
      "gold": 5113,
      "gues": 5114,
      "gaya": 5115,
      "gstrÃ¶m": 5116,
      "hune": 5117,
      "ihan": 5118,
      "iott": 5119,
      "iÃ¡n": 5120,
      "iwal": 5121,
      "jan": 5122,
      "jah": 5123,
      "jork": 5124,
      "jÃ¶": 5125,
      "kha": 5126,
      "krishnan": 5127,
      "lan": 5128,
      "lle": 5129,
      "lore": 5130,
      "lind": 5131,
      "liwal": 5132,
      "more": 5133,
      "mour": 5134,
      "mini": 5135,
      "nil": 5136,
      "okar": 5137,
      "oight": 5138,
      "oja": 5139,
      "oza": 5140,
      "pha": 5141,
      "pita": 5142,
      "rath": 5143,
      "rale": 5144,
      "rsu": 5145,
      "sung": 5146,
      "sork": 5147,
      "sfield": 5148,
      "slav": 5149,
      "sÃ³": 5150,
      "seline": 5151,
      "tenay": 5152,
      "uos": 5153,
      "uber": 5154,
      "uren": 5155,
      "uÃ©": 5156,
      "uvel": 5157,
      "uzar": 5158,
      "uardo": 5159,
      "vor": 5160,
      "vant": 5161,
      "vott": 5162,
      "vrim": 5163,
      "wath": 5164,
      "wade": 5165,
      "yay": 5166,
      "yeng": 5167,
      "yjay": 5168,
      "yunt": 5169,
      "zi": 5170,
      "zin": 5171,
      "Ãº": 5172,
      "ÅŁ": 5173,
      "erudd": 5174,
      "erston": 5175,
      "erasinghe": 5176,
      "arna": 5177,
      "arrim": 5178,
      "arfalla": 5179,
      "int": 5180,
      "inta": 5181,
      "inling": 5182,
      "anford": 5183,
      "ansky": 5184,
      "stit": 5185,
      "stine": 5186,
      "sther": 5187,
      "street": 5188,
      "ilbag": 5189,
      "ington": 5190,
      "ingale": 5191,
      "rea": 5192,
      "reis": 5193,
      "ream": 5194,
      "reth": 5195,
      "rene": 5196,
      "reity": 5197,
      "hev": 5198,
      "orre": 5199,
      "orgstrÃ¶m": 5200,
      "onna": 5201,
      "onÃ©": 5202,
      "onti": 5203,
      "onnet": 5204,
      "onsky": 5205,
      "ensen": 5206,
      "enjit": 5207,
      "rier": 5208,
      "rigan": 5209,
      "riqui": 5210,
      "diris": 5211,
      "alyn": 5212,
      "andar": 5213,
      "andey": 5214,
      "isa": 5215,
      "ismith": 5216,
      "asid": 5217,
      "asbro": 5218,
      "asmine": 5219,
      "asliwal": 5220,
      "esan": 5221,
      "roth": 5222,
      "amy": 5223,
      "amos": 5224,
      "amke": 5225,
      "amata": 5226,
      "amoto": 5227,
      "icz": 5228,
      "icol": 5229,
      "omey": 5230,
      "teri": 5231,
      "ters": 5232,
      "elav": 5233,
      "elton": 5234,
      "elia": 5235,
      "osco": 5236,
      "uchit": 5237,
      "ito": 5238,
      "itel": 5239,
      "itani": 5240,
      "itendra": 5241,
      "itrale": 5242,
      "etthe": 5243,
      "ader": 5244,
      "adra": 5245,
      "adashi": 5246,
      "oley": 5247,
      "lein": 5248,
      "leck": 5249,
      "level": 5250,
      "leischer": 5251,
      "ravan": 5252,
      "tha": 5253,
      "than": 5254,
      "thor": 5255,
      "thia": 5256,
      "idt": 5257,
      "idan": 5258,
      "urston": 5259,
      "hao": 5260,
      "hair": 5261,
      "cey": 5262,
      "undie": 5263,
      "unette": 5264,
      "unze": 5265,
      "illan": 5266,
      "illano": 5267,
      "ovann": 5268,
      "ovinda": 5269,
      "berman": 5270,
      "berly": 5271,
      "chik": 5272,
      "chandran": 5273,
      "chmann": 5274,
      "chanel": 5275,
      "lah": 5276,
      "oot": 5277,
      "ooren": 5278,
      "ooey": 5279,
      "ooper": 5280,
      "cko": 5281,
      "cklind": 5282,
      "ota": 5283,
      "oteler": 5284,
      "akamoto": 5285,
      "aula": 5286,
      "auddin": 5287,
      "author": 5288,
      "iehn": 5289,
      "ieberman": 5290,
      "imal": 5291,
      "abio": 5292,
      "aboch": 5293,
      "avy": 5294,
      "avally": 5295,
      "athbone": 5296,
      "eva": 5297,
      "emia": 5298,
      "emper": 5299,
      "apitani": 5300,
      "Shravan": 5301,
      "ttokar": 5302,
      "allone": 5303,
      "rantonio": 5304,
      "ulasid": 5305,
      "resvant": 5306,
      "ope": 5307,
      "ifer": 5308,
      "ryan": 5309,
      "Chin": 5310,
      "iani": 5311,
      "umas": 5312,
      "umik": 5313,
      "umph": 5314,
      "umika": 5315,
      "agal": 5316,
      "ondo": 5317,
      "elly": 5318,
      "renna": 5319,
      "eymour": 5320,
      "essel": 5321,
      "ettis": 5322,
      "oguÃ©": 5323,
      "hiro": 5324,
      "nachandran": 5325,
      "epp": 5326,
      "ephan": 5327,
      "utan": 5328,
      "inehart": 5329,
      "anga": 5330,
      "anger": 5331,
      "angle": 5332,
      "astner": 5333,
      "mai": 5334,
      "ousse": 5335,
      "oushum": 5336,
      "udson": 5337,
      "udheesh": 5338,
      "unders": 5339,
      "undaro": 5340,
      "antic": 5341,
      "ikrishna": 5342,
      "ikÃ¡n": 5343,
      "endy": 5344,
      "ollo": 5345,
      "ollick": 5346,
      "ildred": 5347,
      "uppert": 5348,
      "orden": 5349,
      "oche": 5350,
      "aibhav": 5351,
      "awn": 5352,
      "away": 5353,
      "isset": 5354,
      "ebber": 5355,
      "acino": 5356,
      "ubey": 5357,
      "romgold": 5358,
      "quin": 5359,
      "ugit": 5360,
      "ugonnet": 5361,
      "urnett": 5362,
      "karef": 5363,
      "ainak": 5364,
      "ainton": 5365,
      "eena": 5366,
      "eenbur": 5367,
      "ongor": 5368,
      "adeem": 5369,
      "velson": 5370,
      "odor": 5371,
      "earce": 5372,
      "ruise": 5373,
      "icks": 5374,
      "illiers": 5375,
      "illiard": 5376,
      "indy": 5377,
      "lyn": 5378,
      "iaz": 5379,
      "achary": 5380,
      "achandran": 5381,
      "ukoza": 5382,
      "arkongor": 5383,
      "ostwick": 5384,
      "Donnell": 5385,
      "oursork": 5386,
      "ourtenay": 5387,
      "anthush": 5388,
      "anthimala": 5389,
      "onique": 5390,
      "omei": 5391,
      "glund": 5392,
      "ynthia": 5393,
      "ahida": 5394,
      "tsadze": 5395,
      "hua": 5396,
      "izon": 5397,
      "vani": 5398,
      "axton": 5399,
      "axena": 5400,
      "rews": 5401,
      "aldine": 5402,
      "Bergman": 5403,
      "ooley": 5404,
      "ssen": 5405,
      "asker": 5406,
      "ountain": 5407,
      "engren": 5408,
      "rutha": 5409,
      "ruthers": 5410,
      "gerdic": 5411,
      "ravegaya": 5412,
      "riksen": 5413,
      "ucker": 5414,
      "yanka": 5415,
      "araf": 5416,
      "beam": 5417,
      "lingler": 5418,
      "oornachandran": 5419,
      "aseerudd": 5420,
      "uchra": 5421,
      "uchman": 5422,
      "erron": 5423,
      "athiya": 5424,
      "gnes": 5425,
      "ternal": 5426,
      "zzard": 5427,
      "ileep": 5428,
      "anditt": 5429,
      "ouria": 5430,
      "amplin": 5431,
      "adami": 5432,
      "offin": 5433,
      "offrey": 5434,
      "eleine": 5435,
      "ldahl": 5436,
      "autami": 5437,
      "abelle": 5438,
      "ataÅŁ": 5439,
      "itzi": 5440,
      "atterton": 5441,
      "ushin": 5442,
      "ushka": 5443,
      "kerritt": 5444,
      "rasenjit": 5445,
      "urian": 5446,
      "oirala": 5447,
      "umann": 5448,
      "urtiz": 5449,
      "Brien": 5450,
      "Disney": 5451,
      "udeau": 5452,
      "akshi": 5453,
      "akshita": 5454,
      "Ã¶hm": 5455,
      "garet": 5456,
      "sintsadze": 5457,
      "Ã«l": 5458,
      "acey": 5459,
      "airban": 5460,
      "iorgio": 5461,
      "arnum": 5462,
      "raven": 5463,
      "ftab": 5464,
      "Wilde": 5465,
      "kihiro": 5466,
      "adhakrishnan": 5467,
      "yrone": 5468,
      "inklage": 5469,
      "avanan": 5470,
      "chacko": 5471,
      "leton": 5472,
      "rieger": 5473,
      "Kenna": 5474,
      "ihim": 5475,
      "tykov": 5476,
      "osloff": 5477,
      "lasta": 5478,
      "earns": 5479,
      "nolds": 5480,
      "ombard": 5481,
      "embroot": 5482,
      "embroke": 5483,
      "minteri": 5484,
      "utchins": 5485,
      "formers": 5486,
      "daykumar": 5487,
      "kinner": 5488,
      "uzna": 5489,
      "manuelle": 5490,
      "shadri": 5491,
      "957": 5492,
      "uwerik": 5493,
      "arajan": 5494,
      "asudha": 5495,
      "radip": 5496,
      "iewicz": 5497,
      "abuj": 5498,
      "athischandra": 5499,
      "Avoy": 5500,
      "Locsin": 5501,
      "Lennan": 5502,
      "Ximena": 5503,
      "aqar": 5504,
      "bnur": 5505,
      "dasani": 5506,
      "ihani": 5507,
      "iotta": 5508,
      "lorelle": 5509,
      "phaug": 5510,
      "rsula": 5511,
      "sÃ³fia": 5512,
      "vottam": 5513,
      "yengar": 5514,
      "yjayanthimala": 5515,
      "arrimore": 5516,
      "stitute": 5517,
      "reisand": 5518,
      "dirisinghe": 5519,
      "asbrouck": 5520,
      "amosi": 5521,
      "elavathi": 5522,
      "uchita": 5523,
      "itralekha": 5524,
      "ettheim": 5525,
      "leveland": 5526,
      "hairul": 5527,
      "undieff": 5528,
      "ovannak": 5529,
      "emiah": 5530,
      "ulasidas": 5531,
      "umphrey": 5532,
      "oguÃ©ro": 5533,
      "ephanie": 5534,
      "oussef": 5535,
      "oushumi": 5536,
      "karefu": 5537,
      "eenburgen": 5538,
      "oursorkh": 5539,
      "gerdichev": 5540,
      "aseeruddin": 5541,
      "airbanks": 5542,
      "\",": 5543,
      ".\"": 5544,
      "..": 5545,
      "26": 5546,
      "Ahn": 5547,
      "Affairs": 5548,
      "Aditya": 5549,
      "BC": 5550,
      "BS": 5551,
      "Band": 5552,
      "Bud": 5553,
      "Bour": 5554,
      "Bakht": 5555,
      "Bipasha": 5556,
      "BÃ¡ky": 5557,
      "Bornebusch": 5558,
      "CA": 5559,
      "Cond": 5560,
      "Cavanaugh": 5561,
      "Dim": 5562,
      "Dian": 5563,
      "Dato": 5564,
      "Dantine": 5565,
      "Dempsey": 5566,
      "Ele": 5567,
      "Fyffe": 5568,
      "Fonda": 5569,
      "Fitzmaurice": 5570,
      "Gross": 5571,
      "Gates": 5572,
      "Gayne": 5573,
      "Giovanna": 5574,
      "Hers": 5575,
      "Hana": 5576,
      "Hold": 5577,
      "Hannah": 5578,
      "Handworth": 5579,
      "Humberston": 5580,
      "IP": 5581,
      "Ish": 5582,
      "Issermann": 5583,
      "Kin": 5584,
      "Kor": 5585,
      "Kum": 5586,
      "Kai": 5587,
      "Kann": 5588,
      "Kissa": 5589,
      "Keramat": 5590,
      "Koechlin": 5591,
      "Kothamangalam": 5592,
      "LM": 5593,
      "Lon": 5594,
      "Lol": 5595,
      "Lyn": 5596,
      "Laby": 5597,
      "Lorne": 5598,
      "Lily": 5599,
      "Luby": 5600,
      "Lohithadas": 5601,
      "Lothar": 5602,
      "Liguoro": 5603,
      "MW": 5604,
      "Mash": 5605,
      "Mawla": 5606,
      "Mathias": 5607,
      "Mammootty": 5608,
      "MÃ³nika": 5609,
      "Nab": 5610,
      "Natte": 5611,
      "Nirup": 5612,
      "Nambeeshan": 5613,
      "Oct": 5614,
      "Ola": 5615,
      "Ph": 5616,
      "Port": 5617,
      "Poir": 5618,
      "Polo": 5619,
      "Rol": 5620,
      "Rupert": 5621,
      "Raghavendra": 5622,
      "Sr": 5623,
      "Sai": 5624,
      "Sung": 5625,
      "Sens": 5626,
      "Sothern": 5627,
      "Tal": 5628,
      "Tib": 5629,
      "Tapan": 5630,
      "Tevi": 5631,
      "Tanie": 5632,
      "Vladi": 5633,
      "VÃ¡zquez": 5634,
      "VÃŃctor": 5635,
      "Wool": 5636,
      "Withey": 5637,
      "Wifstrand": 5638,
      "Yanan": 5639,
      "Zig": 5640,
      "aur": 5641,
      "aaz": 5642,
      "ause": 5643,
      "bes": 5644,
      "bian": 5645,
      "bett": 5646,
      "burn": 5647,
      "bama": 5648,
      "ces": 5649,
      "com": 5650,
      "cow": 5651,
      "cern": 5652,
      "coun": 5653,
      "cover": 5654,
      "cque": 5655,
      "dom": 5656,
      "duc": 5657,
      "det": 5658,
      "dell": 5659,
      "ez": 5660,
      "fare": 5661,
      "fiction": 5662,
      "faaz": 5663,
      "gal": 5664,
      "gun": 5665,
      "gthe": 5666,
      "hra": 5667,
      "house": 5668,
      "hind": 5669,
      "hwin": 5670,
      "hjinder": 5671,
      "ibert": 5672,
      "ious": 5673,
      "king": 5674,
      "kes": 5675,
      "kum": 5676,
      "known": 5677,
      "lad": 5678,
      "light": 5679,
      "lana": 5680,
      "leng": 5681,
      "ning": 5682,
      "nam": 5683,
      "nter": 5684,
      "now": 5685,
      "novel": 5686,
      "nolly": 5687,
      "nbaum": 5688,
      "oof": 5689,
      "pa": 5690,
      "phe": 5691,
      "pag": 5692,
      "pired": 5693,
      "pbu": 5694,
      "rat": 5695,
      "russell": 5696,
      "sur": 5697,
      "soo": 5698,
      "spect": 5699,
      "smith": 5700,
      "spired": 5701,
      "til": 5702,
      "tain": 5703,
      "television": 5704,
      "tever": 5705,
      "uter": 5706,
      "uzz": 5707,
      "uÃ±": 5708,
      "views": 5709,
      "wyn": 5710,
      "wlett": 5711,
      "yu": 5712,
      "year": 5713,
      "yfer": 5714,
      "ypical": 5715,
      "zma": 5716,
      "zhu": 5717,
      "£ãģ": 5718,
      "Ã¨": 5719,
      "Ġ8": 5720,
      "Ġ9": 5721,
      "Ġz": 5722,
      "Ġri": 5723,
      "Ġam": 5724,
      "Ġproducer": 5725,
      "Ġec": 5726,
      "Ġear": 5727,
      "Ġru": 5728,
      "Ġve": 5729,
      "Ġold": 5730,
      "ĠYou": 5731,
      "Ġeter": 5732,
      "Ġera": 5733,
      "Ġright": 5734,
      "Ġesc": 5735,
      "Ġocc": 5736,
      "Ħãģ": 5737,
      "erem": 5738,
      "ared": 5739,
      "aras": 5740,
      "arner": 5741,
      "arily": 5742,
      "arasan": 5743,
      "argest": 5744,
      "iner": 5745,
      "ining": 5746,
      "anor": 5747,
      "aney": 5748,
      "anish": 5749,
      "stey": 5750,
      "story": 5751,
      "ilas": 5752,
      "ilip": 5753,
      "onoc": 5754,
      "rif": 5755,
      "riage": 5756,
      "cted": 5757,
      "dited": 5758,
      "aly": 5759,
      "alle": 5760,
      "alia": 5761,
      "alment": 5762,
      "andem": 5763,
      "Ġtro": 5764,
      "Ġtook": 5765,
      "Ġtale": 5766,
      "Ġtrans": 5767,
      "atre": 5768,
      "atives": 5769,
      "iser": 5770,
      "ison": 5771,
      "asing": 5772,
      "asons": 5773,
      "roup": 5774,
      "icial": 5775,
      "Ġbar": 5776,
      "Ġbus": 5777,
      "Ġbig": 5778,
      "Ġboth": 5779,
      "Ġborrow": 5780,
      "Ġbattle": 5781,
      "Ġbreak": 5782,
      "Ġbrain": 5783,
      "omar": 5784,
      "omine": 5785,
      "Ġav": 5786,
      "Ġauth": 5787,
      "ĠaÃ±os": 5788,
      "teran": 5789,
      "terge": 5790,
      "elve": 5791,
      "Ġthen": 5792,
      "Ġwest": 5793,
      "Ġword": 5794,
      "Ġwife": 5795,
      "Ġwinn": 5796,
      "Ġwomen": 5797,
      "Ġwould": 5798,
      "ucher": 5799,
      "ition": 5800,
      "itation": 5801,
      "itara": 5802,
      "itchen": 5803,
      "itled": 5804,
      "etter": 5805,
      "ĠSr": 5806,
      "ĠSv": 5807,
      "ĠSay": 5808,
      "ĠSab": 5809,
      "ĠSap": 5810,
      "ĠSop": 5811,
      "ĠShan": 5812,
      "ĠSong": 5813,
      "ĠSeat": 5814,
      "ĠSleep": 5815,
      "ĠSign": 5816,
      "ĠSrin": 5817,
      "ĠSelection": 5818,
      "ĠSandhu": 5819,
      "ĠSecond": 5820,
      "ĠSedgwick": 5821,
      "ĠSiegel": 5822,
      "ĠShankar": 5823,
      "ĠSkanda": 5824,
      "ĠSuresh": 5825,
      "ĠSitara": 5826,
      "ayink": 5827,
      "ĠAb": 5828,
      "ĠAt": 5829,
      "ĠAla": 5830,
      "ĠAren": 5831,
      "ĠAung": 5832,
      "ĠAmm": 5833,
      "ĠAsin": 5834,
      "ĠAgnidevan": 5835,
      "ĠAbs": 5836,
      "ĠATM": 5837,
      "ĠAffairs": 5838,
      "ĠAIP": 5839,
      "ĠAgthe": 5840,
      "wright": 5841,
      "adoor": 5842,
      "adway": 5843,
      "Ġisland": 5844,
      "olom": 5845,
      "olid": 5846,
      "olence": 5847,
      "ĠMal": 5848,
      "ĠMat": 5849,
      "ĠMas": 5850,
      "ĠMusic": 5851,
      "ĠMem": 5852,
      "ĠMap": 5853,
      "ĠMess": 5854,
      "ĠMast": 5855,
      "ĠMac": 5856,
      "ĠMari": 5857,
      "ĠMauri": 5858,
      "ĠMano": 5859,
      "ĠMumb": 5860,
      "ĠMuse": 5861,
      "ĠMaureen": 5862,
      "ĠModern": 5863,
      "ĠMitchum": 5864,
      "ĠMuÃ±": 5865,
      "Ġsk": 5866,
      "Ġsu": 5867,
      "Ġsus": 5868,
      "Ġsum": 5869,
      "Ġsist": 5870,
      "Ġseen": 5871,
      "Ġsome": 5872,
      "Ġsport": 5873,
      "Ġsoon": 5874,
      "ĠBis": 5875,
      "ĠBir": 5876,
      "ĠBang": 5877,
      "ĠBud": 5878,
      "ĠBain": 5879,
      "ĠBeat": 5880,
      "ĠBah": 5881,
      "ĠBald": 5882,
      "ĠBrand": 5883,
      "ĠBuck": 5884,
      "ĠBird": 5885,
      "ĠBeyond": 5886,
      "ĠBetty": 5887,
      "ĠBrad": 5888,
      "ĠBibi": 5889,
      "ĠBakht": 5890,
      "ĠBarker": 5891,
      "ĠBennett": 5892,
      "ĠBMW": 5893,
      "ĠThey": 5894,
      "ĠTheodore": 5895,
      "ĠTheatre": 5896,
      "thers": 5897,
      "Ġfame": 5898,
      "Ġfund": 5899,
      "Ġfather": 5900,
      "Ġfestival": 5901,
      "Ġface": 5902,
      "Ġfavourite": 5903,
      "ĠIf": 5904,
      "ĠIan": 5905,
      "ĠIce": 5906,
      "ĠITV": 5907,
      "ĠIda": 5908,
      "ĠIranian": 5909,
      "Ġcre": 5910,
      "Ġcoun": 5911,
      "Ġcrew": 5912,
      "Ġcross": 5913,
      "Ġcovers": 5914,
      "Ġcenter": 5915,
      "Ġculp": 5916,
      "Ġintro": 5917,
      "Ġinspired": 5918,
      "ĠPe": 5919,
      "ĠPat": 5920,
      "ĠPam": 5921,
      "ĠPol": 5922,
      "ĠPath": 5923,
      "ĠPran": 5924,
      "ĠPark": 5925,
      "ĠParty": 5926,
      "ĠPappan": 5927,
      "ĠPenelope": 5928,
      "ĠPank": 5929,
      "ĠPrince": 5930,
      "ĠParker": 5931,
      "ĠPopescu": 5932,
      "ĠPatricia": 5933,
      "ĠPonoc": 5934,
      "cepted": 5935,
      "irm": 5936,
      "irth": 5937,
      "irayink": 5938,
      "unes": 5939,
      "Ġ190": 5940,
      "ĠChe": 5941,
      "ĠCent": 5942,
      "ĠCame": 5943,
      "ĠCob": 5944,
      "ĠCrab": 5945,
      "ĠCook": 5946,
      "ĠCollapsed": 5947,
      "ĠCupid": 5948,
      "ĠCollins": 5949,
      "ĠCumm": 5950,
      "ĠCaine": 5951,
      "ĠCampbell": 5952,
      "ĠCrash": 5953,
      "ĠCheerleaders": 5954,
      "ĠJha": 5955,
      "ĠJun": 5956,
      "ĠJane": 5957,
      "ĠJung": 5958,
      "ĠJuan": 5959,
      "ĠJudy": 5960,
      "ĠJordan": 5961,
      "ĠJisshu": 5962,
      "ĠRan": 5963,
      "ĠRon": 5964,
      "ĠRep": 5965,
      "ĠRoll": 5966,
      "ĠRick": 5967,
      "ĠRoman": 5968,
      "ĠRah": 5969,
      "ĠRyan": 5970,
      "ĠRita": 5971,
      "ĠReturn": 5972,
      "ĠRonald": 5973,
      "ĠRama": 5974,
      "ĠRitup": 5975,
      "ĠRekha": 5976,
      "ĠRupert": 5977,
      "erself": 5978,
      "ershwin": 5979,
      "igner": 5980,
      "iguro": 5981,
      "chn": 5982,
      "chier": 5983,
      "chive": 5984,
      "channel": 5985,
      "ĠHor": 5986,
      "ĠHal": 5987,
      "ĠHis": 5988,
      "ĠHaw": 5989,
      "ĠHari": 5990,
      "ĠHorne": 5991,
      "ĠHale": 5992,
      "ĠHugh": 5993,
      "ĠHundred": 5994,
      "ĠHurt": 5995,
      "ĠHigh": 5996,
      "ĠHitch": 5997,
      "ĠHans": 5998,
      "ĠHolt": 5999,
      "ĠHammer": 6000,
      "ĠHrithik": 6001,
      "ĠHlaing": 6002,
      "ĠHills": 6003,
      "ĠHaines": 6004,
      "ĠTr": 6005,
      "ĠTen": 6006,
      "ĠTim": 6007,
      "ĠThi": 6008,
      "ĠTown": 6009,
      "ĠToe": 6010,
      "ĠThil": 6011,
      "ĠTruth": 6012,
      "ĠTelevision": 6013,
      "ĠTurkey": 6014,
      "ĠTavel": 6015,
      "ĠTaube": 6016,
      "ĠTowers": 6017,
      "ĠTierney": 6018,
      "ĠTuviera": 6019,
      "lap": 6020,
      "law": 6021,
      "laced": 6022,
      "lagher": 6023,
      "ĠFer": 6024,
      "ĠFay": 6025,
      "ĠFall": 6026,
      "ĠFort": 6027,
      "ĠFaw": 6028,
      "ĠFive": 6029,
      "ĠFather": 6030,
      "ĠFour": 6031,
      "ĠFriend": 6032,
      "ĠFields": 6033,
      "ĠFamous": 6034,
      "ĠFyffe": 6035,
      "ĠFilip": 6036,
      "Ġdo": 6037,
      "Ġdu": 6038,
      "Ġdram": 6039,
      "Ġdeter": 6040,
      "ooting": 6041,
      "oogle": 6042,
      "ions": 6043,
      "ĠDo": 6044,
      "ĠDÃ": 6045,
      "ĠDur": 6046,
      "ĠDun": 6047,
      "ĠDante": 6048,
      "ĠDuke": 6049,
      "ĠDutch": 6050,
      "ĠDwarakish": 6051,
      "otional": 6052,
      "ĠLy": 6053,
      "ĠLos": 6054,
      "ĠLex": 6055,
      "ĠLev": 6056,
      "ĠLang": 6057,
      "ĠLast": 6058,
      "ĠLanguage": 6059,
      "ĠLance": 6060,
      "ĠLater": 6061,
      "ĠLike": 6062,
      "ĠLerner": 6063,
      "ĠLloyd": 6064,
      "ĠLowe": 6065,
      "ĠLittle": 6066,
      "ĠLohithadas": 6067,
      "ĠLuis": 6068,
      "ĠLasdun": 6069,
      "ĠLipman": 6070,
      "ĠLokesh": 6071,
      "ĠGa": 6072,
      "ĠGe": 6073,
      "ĠGer": 6074,
      "ĠGar": 6075,
      "ĠGal": 6076,
      "ĠGul": 6077,
      "ĠGop": 6078,
      "ĠGang": 6079,
      "ĠGhost": 6080,
      "ĠGray": 6081,
      "ĠGordon": 6082,
      "ĠGrant": 6083,
      "ĠGemini": 6084,
      "ĠGrasse": 6085,
      "ĠGrace": 6086,
      "ĠGershwin": 6087,
      "ĠGoogle": 6088,
      "Anaspure": 6089,
      "Anstey": 6090,
      "aking": 6091,
      "akrishnan": 6092,
      "iece": 6093,
      "Ġpar": 6094,
      "Ġpers": 6095,
      "Ġprim": 6096,
      "Ġpublic": 6097,
      "Ġpuzz": 6098,
      "Ġpandem": 6099,
      "ĠWil": 6100,
      "ĠWon": 6101,
      "ĠWard": 6102,
      "ĠWain": 6103,
      "ĠWoman": 6104,
      "ĠWrestling": 6105,
      "ĠWoody": 6106,
      "ĠWright": 6107,
      "ĠWayne": 6108,
      "ĠWithers": 6109,
      "ĠWenders": 6110,
      "ĠWomen": 6111,
      "iven": 6112,
      "abayashi": 6113,
      "acts": 6114,
      "ĠKal": 6115,
      "ĠKat": 6116,
      "ĠKir": 6117,
      "ĠKiss": 6118,
      "ĠKenn": 6119,
      "ĠKabhi": 6120,
      "ĠKevin": 6121,
      "ĠKurt": 6122,
      "ĠKokila": 6123,
      "ĠKulkarni": 6124,
      "ĠKravitz": 6125,
      "enty": 6126,
      "ented": 6127,
      "ently": 6128,
      "ĠIts": 6129,
      "artment": 6130,
      "emi": 6131,
      "Shin": 6132,
      "Shoch": 6133,
      "Shmelyov": 6134,
      "alleng": 6135,
      "ranti": 6136,
      "Ġhar": 6137,
      "Ġhim": 6138,
      "Ġhost": 6139,
      "Ġhuman": 6140,
      "Ġhigh": 6141,
      "Ġhired": 6142,
      "Ġholid": 6143,
      "Ġherself": 6144,
      "Ġreun": 6145,
      "Ġrema": 6146,
      "Ġresc": 6147,
      "Ġreasons": 6148,
      "uled": 6149,
      "ĠNo": 6150,
      "ĠNay": 6151,
      "ĠNow": 6152,
      "ĠNell": 6153,
      "ĠNanda": 6154,
      "ĠNazir": 6155,
      "ĠNossiter": 6156,
      "ĠNicholas": 6157,
      "Ġmin": 6158,
      "Ġmem": 6159,
      "Ġmess": 6160,
      "Ġmaj": 6161,
      "Ġmuch": 6162,
      "Ġmass": 6163,
      "Ġmult": 6164,
      "Ġmatrimonio": 6165,
      "Ġmission": 6166,
      "Ġmodern": 6167,
      "Ġmaking": 6168,
      "Thiruvothu": 6169,
      "Thrussell": 6170,
      "Rocque": 6171,
      "ĠEx": 6172,
      "ĠEscape": 6173,
      "ĠEuro": 6174,
      "ĠEvery": 6175,
      "ĠEnds": 6176,
      "ĠEnter": 6177,
      "Chaney": 6178,
      "Chirayink": 6179,
      "Aline": 6180,
      "Alfaaz": 6181,
      "Stock": 6182,
      "Stahl": 6183,
      "umes": 6184,
      "Ġwhy": 6185,
      "ogn": 6186,
      "ogy": 6187,
      "ogram": 6188,
      "utive": 6189,
      "Ġlov": 6190,
      "Ġlargest": 6191,
      "udents": 6192,
      "ĠOh": 6193,
      "ĠOs": 6194,
      "ĠOri": 6195,
      "ĠOut": 6196,
      "ĠOff": 6197,
      "ĠOld": 6198,
      "ĠOregon": 6199,
      "ĠOwen": 6200,
      "Ġstarted": 6201,
      "Ġno": 6202,
      "Ġnomine": 6203,
      "htra": 6204,
      "ilders": 6205,
      "Meighan": 6206,
      "Mezzogiorno": 6207,
      "Ġaspect": 6208,
      "ĠIng": 6209,
      "ĠInn": 6210,
      "ĠInfernal": 6211,
      "Ġform": 6212,
      "Ġforward": 6213,
      "ĠVi": 6214,
      "ĠVan": 6215,
      "ĠViv": 6216,
      "ĠVish": 6217,
      "ĠVino": 6218,
      "ĠVictor": 6219,
      "Ġ2004": 6220,
      "orts": 6221,
      "Ġthwart": 6222,
      "ishno": 6223,
      "asher": 6224,
      "ebag": 6225,
      "acre": 6226,
      "Ġrobot": 6227,
      "Ã©m": 6228,
      "uger": 6229,
      "istan": 6230,
      "istance": 6231,
      "ained": 6232,
      "Myles": 6233,
      "Mystery": 6234,
      "eenth": 6235,
      "Ampor": 6236,
      "Amaldev": 6237,
      "Leo": 6238,
      "Leux": 6239,
      "Carmen": 6240,
      "ĠSte": 6241,
      "ĠStorm": 6242,
      "ĠStandi": 6243,
      "ĠStef": 6244,
      "ĠStephen": 6245,
      "ĠStudio": 6246,
      "ecutive": 6247,
      "iero": 6248,
      "earanc": 6249,
      "ĠAnand": 6250,
      "ĠAnna": 6251,
      "ĠAnton": 6252,
      "ĠAnthik": 6253,
      "ĠAntonio": 6254,
      "ĠCho": 6255,
      "ĠChar": 6256,
      "ĠChris": 6257,
      "ĠChile": 6258,
      "ĠChina": 6259,
      "ĠChatterjee": 6260,
      "ĠChithra": 6261,
      "ustry": 6262,
      "eshima": 6263,
      "ĠFilmed": 6264,
      "ĠFilmfare": 6265,
      "obe": 6266,
      "Ġstri": 6267,
      "Ġstage": 6268,
      "Ġstudents": 6269,
      "ĠAlb": 6270,
      "ĠAlison": 6271,
      "ĠUp": 6272,
      "ĠUs": 6273,
      "ĠUltraman": 6274,
      "ĠUzma": 6275,
      "Arne": 6276,
      "Arved": 6277,
      "ĠShiv": 6278,
      "ĠShame": 6279,
      "ĠShree": 6280,
      "ĠShrik": 6281,
      "ĠShwe": 6282,
      "ĠShiva": 6283,
      "ĠShroff": 6284,
      "ĠShamsuzzaman": 6285,
      "Neetu": 6286,
      "Ġshow": 6287,
      "Ġshown": 6288,
      "Ġshooting": 6289,
      "Ġ1930": 6290,
      "Ġ1936": 6291,
      "eek": 6292,
      "eezhu": 6293,
      "Swapan": 6294,
      "Ġbehind": 6295,
      "Ġaltern": 6296,
      "Ġghost": 6297,
      "Ġgrowing": 6298,
      "Ġgarner": 6299,
      "Ġgroup": 6300,
      "Ġgiven": 6301,
      "ĠThree": 6302,
      "ĠThird": 6303,
      "Parag": 6304,
      "Paramb": 6305,
      "sequ": 6306,
      "Ġplays": 6307,
      "Ġplaywright": 6308,
      "DeVas": 6309,
      "Olsen": 6310,
      "Inter": 6311,
      "kead": 6312,
      "Ã¡ÅĻ": 6313,
      "Ġdiffer": 6314,
      "Ġsched": 6315,
      "human": 6316,
      "Ġ11": 6317,
      "Ġ13": 6318,
      "Ġ15": 6319,
      "Ġ17": 6320,
      "ĠMarc": 6321,
      "ĠMarsh": 6322,
      "ĠMarines": 6323,
      "Kraly": 6324,
      "Kruger": 6325,
      "ancy": 6326,
      "Jeetendra": 6327,
      "Elisha": 6328,
      "Ġ21": 6329,
      "Ġ22": 6330,
      "Ġ26": 6331,
      "Ġ28": 6332,
      "alios": 6333,
      "Boudet": 6334,
      "lines": 6335,
      "Ġ1990": 6336,
      "Ġ1991": 6337,
      "Ġ1994": 6338,
      "Ġ1998": 6339,
      "ĠJohnson": 6340,
      "ĠJohnny": 6341,
      "Michaels": 6342,
      "Ġ1973": 6343,
      "Ġ1974": 6344,
      "Ġ1979": 6345,
      "Deva": 6346,
      "Devin": 6347,
      "Devon": 6348,
      "ĠYadanar": 6349,
      "Ġ1945": 6350,
      "Ġ1949": 6351,
      "Connolly": 6352,
      "Milius": 6353,
      "Taucher": 6354,
      "Pauls": 6355,
      "Ġconf": 6356,
      "Ġconcern": 6357,
      "Josef": 6358,
      "Markey": 6359,
      "Desai": 6360,
      "ects": 6361,
      "Ġmusician": 6362,
      "Ġsupernatural": 6363,
      "Ġ1922": 6364,
      "Ġ1923": 6365,
      "Ġ1954": 6366,
      "Ġ1956": 6367,
      "Beebe": 6368,
      "Laughton": 6369,
      "Lauritzen": 6370,
      "Hewlett": 6371,
      "ĠArjun": 6372,
      "Ġ1965": 6373,
      "Ġ1967": 6374,
      "ĠEdwin": 6375,
      "Mintz": 6376,
      "Miniero": 6377,
      "Adler": 6378,
      "Adnan": 6379,
      "Adalios": 6380,
      "Hisano": 6381,
      "Walburn": 6382,
      "ĠParis": 6383,
      "ĠParents": 6384,
      "Ġ1984": 6385,
      "Ġ1988": 6386,
      "Jodie": 6387,
      "Segal": 6388,
      "Siddiqui": 6389,
      "Ordell": 6390,
      "Office": 6391,
      "Ġprof": 6392,
      "Ġpropag": 6393,
      "ĠBritain": 6394,
      "Gallagher": 6395,
      "Ġleader": 6396,
      "ĠHarman": 6397,
      "ĠHarap": 6398,
      "ĠHarold": 6399,
      "ĠHarpreet": 6400,
      "ĠHarmon": 6401,
      "Ġkill": 6402,
      "Ġkiller": 6403,
      "Ġdead": 6404,
      "Ġvill": 6405,
      "Ġvict": 6406,
      "Ġvideo": 6407,
      "Montever": 6408,
      "Kitabayashi": 6409,
      "ĠZoÃ«": 6410,
      "Nair": 6411,
      "Naima": 6412,
      "Naidu": 6413,
      "Whitman": 6414,
      "Whitrow": 6415,
      "Basu": 6416,
      "Basch": 6417,
      "Kyi": 6418,
      "Kyaw": 6419,
      "ĠWilliams": 6420,
      "ĠUnclaim": 6421,
      "MorÃ¡n": 6422,
      "Misha": 6423,
      "Bernadette": 6424,
      "ĠMehra": 6425,
      "Alberto": 6426,
      "Hopton": 6427,
      "Ġeff": 6428,
      "Ġeight": 6429,
      "Ġext": 6430,
      "Ġexec": 6431,
      "ĠSamuel": 6432,
      "Pettyfer": 6433,
      "Vanel": 6434,
      "Isene": 6435,
      "drawn": 6436,
      "Ġtaking": 6437,
      "Ġseem": 6438,
      "ĠBlondie": 6439,
      "ĠBlues": 6440,
      "ĠBloody": 6441,
      "Ġchalleng": 6442,
      "ĠRose": 6443,
      "ĠRajendar": 6444,
      "Mayring": 6445,
      "Mayur": 6446,
      "erved": 6447,
      "Glass": 6448,
      "Glaser": 6449,
      "plit": 6450,
      "ploy": 6451,
      "prison": 6452,
      "Ġoverall": 6453,
      "ĠBerlin": 6454,
      "ĠBergman": 6455,
      "ĠBarber": 6456,
      "ĠBarry": 6457,
      "ĠBarrett": 6458,
      "Ġcharity": 6459,
      "ĠConst": 6460,
      "ĠLeon": 6461,
      "ĠLeopard": 6462,
      "Ġconsists": 6463,
      "atteru": 6464,
      "Ramya": 6465,
      "Ramakrishnan": 6466,
      "Sanchita": 6467,
      "Ġuntil": 6468,
      "Ġtwelve": 6469,
      "Ġtwenty": 6470,
      "ĠJonathan": 6471,
      "ĠGuy": 6472,
      "ĠGuÃ©diguian": 6473,
      "ĠElizabeth": 6474,
      "ĠAllen": 6475,
      "Eaindra": 6476,
      "Htun": 6477,
      "Schneider": 6478,
      "Teri": 6479,
      "Bhandari": 6480,
      "Darrell": 6481,
      "Frederick": 6482,
      "Goldman": 6483,
      "Goldsmith": 6484,
      "Goldwyn": 6485,
      "Ġdirectors": 6486,
      "ĠSpence": 6487,
      "ĠSpanish": 6488,
      "ĠAdoor": 6489,
      "ĠAdmani": 6490,
      "ĠAmy": 6491,
      "ĠAmarnani": 6492,
      "ĠMcCormack": 6493,
      "ĠMcCormick": 6494,
      "ĠMurphy": 6495,
      "ĠCarl": 6496,
      "ĠCarter": 6497,
      "ĠCarma": 6498,
      "ĠJayan": 6499,
      "ĠJayabharathi": 6500,
      "lained": 6501,
      "Ġdesp": 6502,
      "Ġdesigner": 6503,
      "Ġrevenge": 6504,
      "ĠChristina": 6505,
      "ĠChristmas": 6506,
      "Ġitself": 6507,
      "Bricker": 6508,
      "Buddy": 6509,
      "Luca": 6510,
      "Ralf": 6511,
      "Ġupon": 6512,
      "ensive": 6513,
      "rovers": 6514,
      "ĠShep": 6515,
      "ĠSheela": 6516,
      "ĠShetty": 6517,
      "ĠApe": 6518,
      "Ġspree": 6519,
      "Ġspoof": 6520,
      "ĠClub": 6521,
      "ĠCorman": 6522,
      "ĠHeroes": 6523,
      "ĠDix": 6524,
      "ĠDirect": 6525,
      "ĠDiyarbakÄ±r": 6526,
      "ĠDirector": 6527,
      "Ġpartially": 6528,
      "ĠSharat": 6529,
      "Ġinclude": 6530,
      "Benjamin": 6531,
      "girls": 6532,
      "SvozilovÃ¡": 6533,
      "Ġopera": 6534,
      "ĠBroadway": 6535,
      "ĠJuly": 6536,
      "ĠJulie": 6537,
      "ĠJessica": 6538,
      "ĠWalt": 6539,
      "ĠWalter": 6540,
      "ĠWallace": 6541,
      "ĠWalker": 6542,
      "ĠNorth": 6543,
      "ĠOlsen": 6544,
      "Burress": 6545,
      "Burwell": 6546,
      "Jacoby": 6547,
      "Seaton": 6548,
      "uval": 6549,
      "Colleen": 6550,
      "Garner": 6551,
      "rilogy": 6552,
      "Ġ30": 6553,
      "Ġaccepted": 6554,
      "Ġtheatre": 6555,
      "Ġtheaters": 6556,
      "ĠAleksandr": 6557,
      "Ġindustry": 6558,
      "Ġinterior": 6559,
      "Ġinterviews": 6560,
      "ĠJoan": 6561,
      "ĠJoel": 6562,
      "ĠRalston": 6563,
      "ĠFredric": 6564,
      "ĠFrederick": 6565,
      "ĠDesmond": 6566,
      "ĠDeswa": 6567,
      "ĠLaura": 6568,
      "ĠLauren": 6569,
      "Ġhands": 6570,
      "Ġnotable": 6571,
      "Ġperformed": 6572,
      "Ġfocused": 6573,
      "Sae": 6574,
      "WaszyÅĦski": 6575,
      "Ġencoun": 6576,
      "Ġentire": 6577,
      "Ġbecomes": 6578,
      "Ġbecause": 6579,
      "ĠSwap": 6580,
      "ĠSwiss": 6581,
      "ĠMiles": 6582,
      "ĠMilby": 6583,
      "ĠMontgomery": 6584,
      "ĠMonogram": 6585,
      "ĠMelville": 6586,
      "Ġsubject": 6587,
      "Ġsubsequ": 6588,
      "ĠBeck": 6589,
      "ĠBeautiful": 6590,
      "ĠBhasi": 6591,
      "ĠColumb": 6592,
      "ĠHeaven": 6593,
      "ĠGlenn": 6594,
      "ĠGreene": 6595,
      "Ġretro": 6596,
      "Ġreturn": 6597,
      "Ġreturning": 6598,
      "Ġmarked": 6599,
      "ĠEarl": 6600,
      "ĠEarth": 6601,
      "Ġcomedian": 6602,
      "Ġcomedies": 6603,
      "Ġcommission": 6604,
      "Ġcommunist": 6605,
      "Balsai": 6606,
      "Chester": 6607,
      "Helmut": 6608,
      "Perera": 6609,
      "Ġrun": 6610,
      "ĠSarhadi": 6611,
      "ĠSuma": 6612,
      "ĠSummer": 6613,
      "ology": 6614,
      "ĠMukesh": 6615,
      "ĠBrenon": 6616,
      "ĠIsrael": 6617,
      "Ġclose": 6618,
      "ĠGoing": 6619,
      "ĠWoods": 6620,
      "ĠNaidu": 6621,
      "ĠNotari": 6622,
      "ĠVinod": 6623,
      "ĠVincent": 6624,
      "ĠVenk": 6625,
      "Ġcontrovers": 6626,
      "ĠArtists": 6627,
      "Ġappearance": 6628,
      "Ġappearanc": 6629,
      "Padhi": 6630,
      "Padukone": 6631,
      "Ravi": 6632,
      "Simonetti": 6633,
      "Graye": 6634,
      "Hossein": 6635,
      "Latifi": 6636,
      "Mohammad": 6637,
      "Philipp": 6638,
      "Rahman": 6639,
      "Zhgun": 6640,
      "ãĤĭ": 6641,
      "ãĤĦãģ": 6642,
      "Ġevent": 6643,
      "Ġevents": 6644,
      "Ġawards": 6645,
      "ĠSea": 6646,
      "ĠSingap": 6647,
      "ĠSundance": 6648,
      "ĠAfric": 6649,
      "ĠBobby": 6650,
      "ĠJanice": 6651,
      "ĠRamakrishna": 6652,
      "ĠRussia": 6653,
      "ĠHtun": 6654,
      "ĠHelen": 6655,
      "ĠHartman": 6656,
      "ĠTaiga": 6657,
      "ĠTwo": 6658,
      "ĠDanish": 6659,
      "ĠGrandon": 6660,
      "ĠGeorgian": 6661,
      "Ġpresented": 6662,
      "Ġpreserved": 6663,
      "ĠKeith": 6664,
      "ĠKingdom": 6665,
      "Ġrecogn": 6666,
      "ĠNagavalli": 6667,
      "ĠEmily": 6668,
      "ĠVidyasagar": 6669,
      "ĠAngeles": 6670,
      "Ġedited": 6671,
      "ĠJeffries": 6672,
      "Ġprisoners": 6673,
      "ĠOlympics": 6674,
      "vidual": 6675,
      "000": 6676,
      "Breese": 6677,
      "Breckenridge": 6678,
      "Kalem": 6679,
      "Kalki": 6680,
      "Meyers": 6681,
      "Meynell": 6682,
      "Subbu": 6683,
      "Subbaiah": 6684,
      "Vasantlal": 6685,
      "Ġending": 6686,
      "Ġhell": 6687,
      "Ġhelp": 6688,
      "Ġboat": 6689,
      "Ġworking": 6690,
      "ĠSylv": 6691,
      "ĠSydney": 6692,
      "ĠSupriya": 6693,
      "ĠMadhu": 6694,
      "ĠMorton": 6695,
      "Ġslang": 6696,
      "Ġslasher": 6697,
      "Ġsoundtra": 6698,
      "ĠBrian": 6699,
      "Ġcurren": 6700,
      "Ġcurse": 6701,
      "Ġcareer": 6702,
      "Ġinstalment": 6703,
      "ĠPlayers": 6704,
      "ĠCasablanca": 6705,
      "ĠCowboy": 6706,
      "ĠCowgirls": 6707,
      "ĠJeremy": 6708,
      "ĠRohit": 6709,
      "ĠRohana": 6710,
      "ĠRoger": 6711,
      "ĠReleased": 6712,
      "ĠReleasing": 6713,
      "ĠHoudini": 6714,
      "ĠHunsur": 6715,
      "ĠHardy": 6716,
      "ĠHellman": 6717,
      "ĠTakeshi": 6718,
      "ĠFocker": 6719,
      "ĠFockers": 6720,
      "ĠDisney": 6721,
      "ĠDhawan": 6722,
      "ĠDave": 6723,
      "ĠDebbie": 6724,
      "ĠLockwood": 6725,
      "ĠGeneral": 6726,
      "ĠGirls": 6727,
      "Ġpartying": 6728,
      "Ġprint": 6729,
      "ĠWaggner": 6730,
      "ĠWilder": 6731,
      "ĠKnievel": 6732,
      "ĠKashan": 6733,
      "ĠKashmir": 6734,
      "Ġmonth": 6735,
      "Ġprotects": 6736,
      "Ġnewly": 6737,
      "Ġexplores": 6738,
      "Svetla": 6739,
      "Svetlana": 6740,
      "Ġopening": 6741,
      "Ġopened": 6742,
      "Ġdiscovered": 6743,
      "Ġdeveloped": 6744,
      "Ġattempts": 6745,
      "Asherson": 6746,
      "Birnbaum": 6747,
      "Baldwin": 6748,
      "Coordinator": 6749,
      "Cobbs": 6750,
      "Cornell": 6751,
      "Cumming": 6752,
      "Geary": 6753,
      "Ganesh": 6754,
      "GastÃ³n": 6755,
      "Haig": 6756,
      "Hyde": 6757,
      "Kouprine": 6758,
      "Laval": 6759,
      "MichaÅĤ": 6760,
      "Otomar": 6761,
      "Pilcher": 6762,
      "RenÃ©e": 6763,
      "Rachel": 6764,
      "Sukhjinder": 6765,
      "Teja": 6766,
      "Tamhankar": 6767,
      "Vaishno": 6768,
      "Vikram": 6769,
      "YÅįichirÅį": 6770,
      "Valentine": 6771,
      "Francoise": 6772,
      "Ramanlal": 6773,
      "Schlee": 6774,
      "Makarand": 6775,
      "Eugenio": 6776,
      "Koppel": 6777,
      "belÃ¡ÅĻ": 6778,
      "ruti": 6779,
      "Ġestate": 6780,
      "Ġviolence": 6781,
      "Ġidentity": 6782,
      "Ġbuild": 6783,
      "Ġboyfriend": 6784,
      "Ġtheatrical": 6785,
      "ĠStock": 6786,
      "ĠMoscow": 6787,
      "ĠMunich": 6788,
      "ĠMakhmalbaf": 6789,
      "ĠMaharas": 6790,
      "ĠMiracle": 6791,
      "Ġsimilar": 6792,
      "ĠBuddha": 6793,
      "ĠBakker": 6794,
      "Ġfemale": 6795,
      "Ġfalls": 6796,
      "Ġcolle": 6797,
      "Ġinvol": 6798,
      "Ġindividual": 6799,
      "ĠPerera": 6800,
      "ĠChaney": 6801,
      "ĠRoma": 6802,
      "ĠHappy": 6803,
      "ĠHungarian": 6804,
      "ĠTurkish": 6805,
      "ĠForeign": 6806,
      "ĠFeature": 6807,
      "ĠLindstrÃ¶m": 6808,
      "ĠLatifah": 6809,
      "Ġmarriage": 6810,
      "ĠEaindra": 6811,
      "ĠStarring": 6812,
      "Ġdialogues": 6813,
      "ĠYogish": 6814,
      "ĠDeepak": 6815,
      "Ġpreviously": 6816,
      "Ġjourney": 6817,
      "Ġoperating": 6818,
      "ĠProducers": 6819,
      "Ġentered": 6820,
      "Ġteenager": 6821,
      "ĠMukherjee": 6822,
      "Ġcloser": 6823,
      "Ġobsession": 6824,
      "ĠAfghanistan": 6825,
      "Ġnewspaper": 6826,
      "ĠSebastian": 6827,
      "Ġpersonality": 6828,
      "Ġhistorical": 6829,
      "Bourchier": 6830,
      "Bakhtadze": 6831,
      "Conde": 6832,
      "Dimebag": 6833,
      "Diane": 6834,
      "Eleanor": 6835,
      "Herschel": 6836,
      "Holdridge": 6837,
      "Ishiguro": 6838,
      "Kinkead": 6839,
      "KorbelÃ¡ÅĻ": 6840,
      "Kumkum": 6841,
      "Kannan": 6842,
      "Loletta": 6843,
      "Lynch": 6844,
      "Labyorteaux": 6845,
      "Mashkov": 6846,
      "Nabeshima": 6847,
      "Natteford": 6848,
      "Octavia": 6849,
      "Phyu": 6850,
      "Portman": 6851,
      "PoirÃ©": 6852,
      "Rolfe": 6853,
      "Sensational": 6854,
      "Tibbett": 6855,
      "Vladimir": 6856,
      "Woolrich": 6857,
      "Zigman": 6858,
      "duces": 6859,
      "ibertÃ©": 6860,
      "ladeshi": 6861,
      "length": 6862,
      "novelist": 6863,
      "pbuilders": 6864,
      "£ãģ¦": 6865,
      "Ġrule": 6866,
      "Ġveteran": 6867,
      "Ġolder": 6868,
      "Ġeternal": 6869,
      "Ġrights": 6870,
      "Ġescape": 6871,
      "Ġoccas": 6872,
      "Ġbusiness": 6873,
      "Ġbiggest": 6874,
      "Ġborrowed": 6875,
      "Ġauthor": 6876,
      "tergeist": 6877,
      "Ġwestern": 6878,
      "Ġwinning": 6879,
      "ĠSaparov": 6880,
      "ĠSriniv": 6881,
      "ĠAlabama": 6882,
      "ĠArend": 6883,
      "ĠAbsolom": 6884,
      "ĠMapes": 6885,
      "ĠManoj": 6886,
      "ĠMuseum": 6887,
      "ĠMuÃ±oz": 6888,
      "Ġsummer": 6889,
      "Ġsisters": 6890,
      "Ġsports": 6891,
      "ĠBangladeshi": 6892,
      "ĠBahadoor": 6893,
      "ĠBakhtay": 6894,
      "Ġfestivals": 6895,
      "Ġculprit": 6896,
      "Ġintroduces": 6897,
      "ĠPathÃ©": 6898,
      "ĠPankaj": 6899,
      "ĠCentury": 6900,
      "ĠRepublic": 6901,
      "ĠRomanian": 6902,
      "ĠHitchcock": 6903,
      "ĠThilakan": 6904,
      "ĠFawad": 6905,
      "ĠFilipino": 6906,
      "ĠLevel": 6907,
      "ĠGopi": 6908,
      "Ġprimarily": 6909,
      "Ġpandemic": 6910,
      "Shochiku": 6911,
      "Ġhighlight": 6912,
      "Ġholiday": 6913,
      "Ġmajor": 6914,
      "Ġmassacre": 6915,
      "Chirayinkeezhu": 6916,
      "Stockfeld": 6917,
      "Ġnominee": 6918,
      "Ġaspects": 6919,
      "ĠVishn": 6920,
      "ĠStandish": 6921,
      "ĠUzmaan": 6922,
      "ĠShrikant": 6923,
      "Ġgarnered": 6924,
      "Parambrata": 6925,
      "DeVasquez": 6926,
      "Ġscheduled": 6927,
      "Tauchert": 6928,
      "Ġconcerns": 6929,
      "Ġpropaganda": 6930,
      "ĠHarmonies": 6931,
      "Monteverde": 6932,
      "ĠUnclaimed": 6933,
      "Ġchallenges": 6934,
      "Glasser": 6935,
      "Ġencounter": 6936,
      "ĠColumbia": 6937,
      "Ġcommissioned": 6938,
      "ĠIsraeli": 6939,
      "Ġappearances": 6940,
      "ãĤĦãģ£ãģ¦": 6941,
      "Ġsoundtrack": 6942,
      "ĠCowboys": 6943,
      "ĠMaharashtra": 6944,
      "!<": 6945,
      "\".<": 6946,
      "-_": 6947,
      "Ag": 6948,
      "At": 6949,
      "Az": 6950,
      "Aur": 6951,
      "Aran": 6952,
      "Akar": 6953,
      "Aya": 6954,
      "Ats": 6955,
      "Abe": 6956,
      "Aino": 6957,
      "Avery": 6958,
      "Ates": 6959,
      "Avin": 6960,
      "Australian": 6961,
      "Ascar": 6962,
      "Aidan": 6963,
      "Aryan": 6964,
      "Augonnet": 6965,
      "Agnes": 6966,
      "Aftab": 6967,
      "Akihiro": 6968,
      "Bi": 6969,
      "BÃ": 6970,
      "Bin": 6971,
      "Bil": 6972,
      "Bon": 6973,
      "Bos": 6974,
      "Bay": 6975,
      "Bol": 6976,
      "Bla": 6977,
      "Bak": 6978,
      "Bau": 6979,
      "Bry": 6980,
      "Bond": 6981,
      "Bess": 6982,
      "Britt": 6983,
      "Bord": 6984,
      "Bone": 6985,
      "Beld": 6986,
      "Beng": 6987,
      "Butt": 6988,
      "Bates": 6989,
      "Bush": 6990,
      "Bode": 6991,
      "Between": 6992,
      "Bix": 6993,
      "Baker": 6994,
      "Brett": 6995,
      "Buster": 6996,
      "Bosko": 6997,
      "Bambi": 6998,
      "Booth": 6999,
      "BjÃ¶": 7000,
      "Buren": 7001,
      "BorgstrÃ¶m": 7002,
      "Boteler": 7003,
      "Biehn": 7004,
      "Bimal": 7005,
      "Bettis": 7006,
      "Bisset": 7007,
      "Burnett": 7008,
      "Bostwick": 7009,
      "Buchman": 7010,
      "Bathiya": 7011,
      "Badami": 7012,
      "Burian": 7013,
      "Bovannak": 7014,
      "Cre": 7015,
      "Cam": 7016,
      "Cot": 7017,
      "Crist": 7018,
      "Cors": 7019,
      "Condon": 7020,
      "Clin": 7021,
      "Corne": 7022,
      "Caill": 7023,
      "Crime": 7024,
      "Cumb": 7025,
      "Caven": 7026,
      "Comedy": 7027,
      "Croy": 7028,
      "Cooper": 7029,
      "Capitani": 7030,
      "Crenna": 7031,
      "CikÃ¡n": 7032,
      "Cruise": 7033,
      "Courtenay": 7034,
      "Cynthia": 7035,
      "Coffin": 7036,
      "Curtiz": 7037,
      "Craven": 7038,
      "Cleveland": 7039,
      "Cundieff": 7040,
      "Da": 7041,
      "Du": 7042,
      "Dol": 7043,
      "Dak": 7044,
      "Dem": 7045,
      "Dry": 7046,
      "Dann": 7047,
      "Dors": 7048,
      "Dene": 7049,
      "Danna": 7050,
      "Dwe": 7051,
      "Dutt": 7052,
      "Dorne": 7053,
      "Dale": 7054,
      "Dino": 7055,
      "Diram": 7056,
      "Dolph": 7057,
      "Dush": 7058,
      "Danner": 7059,
      "Drey": 7060,
      "Dudge": 7061,
      "Dankan": 7062,
      "Dustin": 7063,
      "Diana": 7064,
      "Dario": 7065,
      "Dwarakish": 7066,
      "DMX": 7067,
      "Dilbag": 7068,
      "Drea": 7069,
      "Dito": 7070,
      "Dumas": 7071,
      "Depp": 7072,
      "Dinehart": 7073,
      "Dawn": 7074,
      "Dubey": 7075,
      "Dromgold": 7076,
      "Dainton": 7077,
      "Dileep": 7078,
      "Dinklage": 7079,
      "Eh": 7080,
      "Ez": 7081,
      "Eat": 7082,
      "Ege": 7083,
      "Esh": 7084,
      "Ebert": 7085,
      "Edie": 7086,
      "Emm": 7087,
      "Egan": 7088,
      "Eti": 7089,
      "Erich": 7090,
      "Emanuel": 7091,
      "Ends": 7092,
      "Evrim": 7093,
      "Esther": 7094,
      "Ethan": 7095,
      "Eternal": 7096,
      "Edirisinghe": 7097,
      "Fre": 7098,
      "Film": 7099,
      "Fri": 7100,
      "Fed": 7101,
      "Fay": 7102,
      "Fion": 7103,
      "Fres": 7104,
      "Fire": 7105,
      "Fant": 7106,
      "Fann": 7107,
      "First": 7108,
      "Full": 7109,
      "Flor": 7110,
      "Farno": 7111,
      "Flet": 7112,
      "Finley": 7113,
      "Fredi": 7114,
      "Fischer": 7115,
      "Fried": 7116,
      "Faus": 7117,
      "Fehr": 7118,
      "Famke": 7119,
      "Felton": 7120,
      "Foley": 7121,
      "Fleischer": 7122,
      "Fabio": 7123,
      "Fugit": 7124,
      "Farnum": 7125,
      "Florelle": 7126,
      "Fairbanks": 7127,
      "Gm": 7128,
      "Gw": 7129,
      "Gil": 7130,
      "Gro": 7131,
      "Gill": 7132,
      "Gang": 7133,
      "Gust": 7134,
      "Gitt": 7135,
      "Gass": 7136,
      "Gail": 7137,
      "Gwen": 7138,
      "Gaze": 7139,
      "Golan": 7140,
      "Gyles": 7141,
      "Gould": 7142,
      "Gemini": 7143,
      "Granger": 7144,
      "Grasse": 7145,
      "Guben": 7146,
      "Govinda": 7147,
      "Glyn": 7148,
      "Gerron": 7149,
      "Gautami": 7150,
      "Giorgio": 7151,
      "Hon": 7152,
      "Ham": 7153,
      "Hur": 7154,
      "Hill": 7155,
      "Hig": 7156,
      "Hend": 7157,
      "Hage": 7158,
      "Hong": 7159,
      "Hone": 7160,
      "Homer": 7161,
      "Hah": 7162,
      "Holla": 7163,
      "Huss": 7164,
      "Hide": 7165,
      "Hull": 7166,
      "Horn": 7167,
      "Hino": 7168,
      "Hindi": 7169,
      "Hank": 7170,
      "Hurt": 7171,
      "Hori": 7172,
      "Hakan": 7173,
      "Hayashi": 7174,
      "Hilda": 7175,
      "Hatton": 7176,
      "Hinde": 7177,
      "Haines": 7178,
      "Huber": 7179,
      "Hader": 7180,
      "Hoot": 7181,
      "Hudson": 7182,
      "Huppert": 7183,
      "Hicks": 7184,
      "Hilliard": 7185,
      "Hutchins": 7186,
      "Hasbrouck": 7187,
      "Humphrey": 7188,
      "Iw": 7189,
      "Iom": 7190,
      "Iman": 7191,
      "Isham": 7192,
      "Ign": 7193,
      "Ida": 7194,
      "Irani": 7195,
      "Imon": 7196,
      "Ijork": 7197,
      "Irene": 7198,
      "Imai": 7199,
      "Izzard": 7200,
      "Ildahl": 7201,
      "Iyengar": 7202,
      "Jov": 7203,
      "Jian": 7204,
      "Joun": 7205,
      "Jada": 7206,
      "Jabl": 7207,
      "Jolly": 7208,
      "June": 7209,
      "Justin": 7210,
      "Jason": 7211,
      "Jaroslav": 7212,
      "Jisshu": 7213,
      "Jasmine": 7214,
      "Jitendra": 7215,
      "Ko": 7216,
      "Kre": 7217,
      "Kid": 7218,
      "Koo": 7219,
      "Kang": 7220,
      "Kud": 7221,
      "Kong": 7222,
      "Kate": 7223,
      "Kob": 7224,
      "Kane": 7225,
      "Kaz": 7226,
      "Kali": 7227,
      "Katt": 7228,
      "Kona": 7229,
      "Kirst": 7230,
      "Kerman": 7231,
      "Kwan": 7232,
      "Krishna": 7233,
      "Kens": 7234,
      "Kaufman": 7235,
      "Koehler": 7236,
      "Kasliwal": 7237,
      "Klein": 7238,
      "Kelly": 7239,
      "Kastner": 7240,
      "Kollo": 7241,
      "Klingler": 7242,
      "Koirala": 7243,
      "Krieger": 7244,
      "Kosloff": 7245,
      "Kearns": 7246,
      "Khairul": 7247,
      "Lu": 7248,
      "Lil": 7249,
      "Land": 7250,
      "Lam": 7251,
      "Lom": 7252,
      "Lex": 7253,
      "Liv": 7254,
      "Loll": 7255,
      "Loy": 7256,
      "Lip": 7257,
      "Lilli": 7258,
      "Lott": 7259,
      "Lax": 7260,
      "Lwin": 7261,
      "Lara": 7262,
      "Landi": 7263,
      "Lister": 7264,
      "Larn": 7265,
      "Levi": 7266,
      "Layton": 7267,
      "Lake": 7268,
      "Lowery": 7269,
      "Lima": 7270,
      "Logan": 7271,
      "Ledford": 7272,
      "Lester": 7273,
      "Liu": 7274,
      "Luis": 7275,
      "Lasdun": 7276,
      "Lipman": 7277,
      "Lokesh": 7278,
      "Lumang": 7279,
      "Lorre": 7280,
      "Lisa": 7281,
      "Lieberman": 7282,
      "Lushin": 7283,
      "Lihim": 7284,
      "Lombard": 7285,
      "Liotta": 7286,
      "Larrimore": 7287,
      "Mol": 7288,
      "Mun": 7289,
      "Mart": 7290,
      "Mag": 7291,
      "Mire": 7292,
      "Mik": 7293,
      "Mai": 7294,
      "More": 7295,
      "Maj": 7296,
      "Must": 7297,
      "Miz": 7298,
      "Mays": 7299,
      "Madam": 7300,
      "Mabel": 7301,
      "Mohan": 7302,
      "Moch": 7303,
      "Mower": 7304,
      "Moir": 7305,
      "Mike": 7306,
      "Merrill": 7307,
      "Moviet": 7308,
      "Mitchum": 7309,
      "Mamata": 7310,
      "Mangle": 7311,
      "Mollick": 7312,
      "Mildred": 7313,
      "Mainak": 7314,
      "Mindy": 7315,
      "Monique": 7316,
      "Mountain": 7317,
      "Mitzi": 7318,
      "Moushumi": 7319,
      "Ni": 7320,
      "Nu": 7321,
      "Nay": 7322,
      "Nad": 7323,
      "Nak": 7324,
      "Nell": 7325,
      "Nett": 7326,
      "Nain": 7327,
      "Nita": 7328,
      "Nova": 7329,
      "Naldi": 7330,
      "Nolan": 7331,
      "Nicholas": 7332,
      "Nyunt": 7333,
      "Nandar": 7334,
      "Navy": 7335,
      "Nutan": 7336,
      "Nadeem": 7337,
      "Nettheim": 7338,
      "NoguÃ©ro": 7339,
      "Naseeruddin": 7340,
      "Ok": 7341,
      "Om": 7342,
      "Oo": 7343,
      "Ous": 7344,
      "Oren": 7345,
      "Orak": 7346,
      "Oyo": 7347,
      "Ottokar": 7348,
      "Pa": 7349,
      "Pi": 7350,
      "Pat": 7351,
      "Pro": 7352,
      "Pow": 7353,
      "Piv": 7354,
      "Poll": 7355,
      "Play": 7356,
      "Park": 7357,
      "Phil": 7358,
      "Polla": 7359,
      "Pere": 7360,
      "Pani": 7361,
      "Prest": 7362,
      "Prim": 7363,
      "Penny": 7364,
      "Power": 7365,
      "Pitt": 7366,
      "Parker": 7367,
      "Podd": 7368,
      "Pyar": 7369,
      "Patton": 7370,
      "Poehler": 7371,
      "Pyay": 7372,
      "Preity": 7373,
      "Ponti": 7374,
      "Pandey": 7375,
      "Paula": 7376,
      "Pacino": 7377,
      "Pearce": 7378,
      "Paxton": 7379,
      "Pooley": 7380,
      "Pravegaya": 7381,
      "Poornachandran": 7382,
      "Panditt": 7383,
      "Pouria": 7384,
      "Prasenjit": 7385,
      "Pembroke": 7386,
      "Pradip": 7387,
      "Poursorkh": 7388,
      "Qion": 7389,
      "Ru": 7390,
      "Ron": 7391,
      "Rap": 7392,
      "Rey": 7393,
      "Rang": 7394,
      "Roll": 7395,
      "Rai": 7396,
      "Rip": 7397,
      "Rick": 7398,
      "Rene": 7399,
      "Rona": 7400,
      "Ryan": 7401,
      "Ruman": 7402,
      "Rue": 7403,
      "Rusty": 7404,
      "Ruby": 7405,
      "Ryo": 7406,
      "Roland": 7407,
      "Rys": 7408,
      "Rubin": 7409,
      "Rains": 7410,
      "Ruben": 7411,
      "Runze": 7412,
      "Raboch": 7413,
      "Rathbone": 7414,
      "Rondo": 7415,
      "Rundaro": 7416,
      "Reena": 7417,
      "Riaz": 7418,
      "Rakshita": 7419,
      "RÃ¶hm": 7420,
      "Radhakrishnan": 7421,
      "Rihani": 7422,
      "Ruchita": 7423,
      "Sn": 7424,
      "Sing": 7425,
      "Sor": 7426,
      "Suc": 7427,
      "Sau": 7428,
      "Sab": 7429,
      "Sap": 7430,
      "Sant": 7431,
      "Skar": 7432,
      "Soe": 7433,
      "Sind": 7434,
      "Sada": 7435,
      "Sree": 7436,
      "Sally": 7437,
      "Sandra": 7438,
      "Sandr": 7439,
      "Serv": 7440,
      "Suman": 7441,
      "Sue": 7442,
      "Sibi": 7443,
      "Sagar": 7444,
      "Skanda": 7445,
      "Senta": 7446,
      "Suresh": 7447,
      "Sajid": 7448,
      "Sashik": 7449,
      "Sakamoto": 7450,
      "Seymour": 7451,
      "Sudheesh": 7452,
      "Santhush": 7453,
      "Saxena": 7454,
      "Saraf": 7455,
      "Skerritt": 7456,
      "Skinner": 7457,
      "Sabuj": 7458,
      "Sathischandra": 7459,
      "Ti": 7460,
      "Tu": 7461,
      "Tan": 7462,
      "Tor": 7463,
      "Ted": 7464,
      "Tat": 7465,
      "Tit": 7466,
      "Tay": 7467,
      "Tol": 7468,
      "Tab": 7469,
      "Tav": 7470,
      "Tep": 7471,
      "Tash": 7472,
      "Tark": 7473,
      "Tse": 7474,
      "Tok": 7475,
      "Tris": 7476,
      "Tanu": 7477,
      "Torn": 7478,
      "Trov": 7479,
      "Tisha": 7480,
      "Toby": 7481,
      "Topher": 7482,
      "Toland": 7483,
      "Towers": 7484,
      "Tully": 7485,
      "Tierney": 7486,
      "Tuviera": 7487,
      "Tinling": 7488,
      "TonÃ©": 7489,
      "Tadashi": 7490,
      "Temper": 7491,
      "Tresvant": 7492,
      "Tomei": 7493,
      "Tasker": 7494,
      "Tucker": 7495,
      "Tsintsadze": 7496,
      "Tyrone": 7497,
      "US": 7498,
      "Ud": 7499,
      "Ul": 7500,
      "Um": 7501,
      "Ure": 7502,
      "Uhm": 7503,
      "Uterman": 7504,
      "Utz": 7505,
      "Usher": 7506,
      "Udaykumar": 7507,
      "Ursula": 7508,
      "Var": 7509,
      "Vest": 7510,
      "Vish": 7511,
      "Viss": 7512,
      "Vitt": 7513,
      "Virk": 7514,
      "Valdemar": 7515,
      "Varun": 7516,
      "Voight": 7517,
      "Villano": 7518,
      "Vooren": 7519,
      "Vaibhav": 7520,
      "Villiers": 7521,
      "Vlasta": 7522,
      "Vyjayanthimala": 7523,
      "Wy": 7524,
      "Won": 7525,
      "Wand": 7526,
      "Wed": 7527,
      "Wat": 7528,
      "Wes": 7529,
      "Wom": 7530,
      "Wade": 7531,
      "Wick": 7532,
      "Willi": 7533,
      "Werner": 7534,
      "Waldemar": 7535,
      "Wajid": 7536,
      "Wessel": 7537,
      "Wendy": 7538,
      "Worden": 7539,
      "Webber": 7540,
      "Wahida": 7541,
      "Waqar": 7542,
      "Yog": 7543,
      "Yang": 7544,
      "Yarb": 7545,
      "Yuan": 7546,
      "Yury": 7547,
      "Yosh": 7548,
      "YMusic": 7549,
      "Yadanar": 7550,
      "Yoram": 7551,
      "Yuos": 7552,
      "Yumika": 7553,
      "Yuzna": 7554,
      "Youssef": 7555,
      "Zal": 7556,
      "Zay": 7557,
      "Zev": 7558,
      "Zack": 7559,
      "Zinta": 7560,
      "Zhao": 7561,
      "Zooey": 7562,
      "Zachary": 7563,
      "ZsÃ³fia": 7564,
      "_%": 7565,
      "_-_": 7566,
      "aÃ": 7567,
      "aan": 7568,
      "ahe": 7569,
      "aid": 7570,
      "bÃ³": 7571,
      "bakht": 7572,
      "chael": 7573,
      "cardo": 7574,
      "dar": 7575,
      "don": 7576,
      "dol": 7577,
      "eo": 7578,
      "eind": 7579,
      "eesh": 7580,
      "ewe": 7581,
      "fus": 7582,
      "frew": 7583,
      "fredi": 7584,
      "farfalla": 7585,
      "gi": 7586,
      "gas": 7587,
      "gell": 7588,
      "gana": 7589,
      "gger": 7590,
      "gÃ¥": 7591,
      "ggman": 7592,
      "gowan": 7593,
      "hal": 7594,
      "hir": 7595,
      "hov": 7596,
      "hren": 7597,
      "hsi": 7598,
      "hammed": 7599,
      "horam": 7600,
      "iman": 7601,
      "iess": 7602,
      "iyan": 7603,
      "ienz": 7604,
      "ienne": 7605,
      "jum": 7606,
      "jik": 7607,
      "jome": 7608,
      "kett": 7609,
      "kog": 7610,
      "kutt": 7611,
      "kfe": 7612,
      "kaya": 7613,
      "kroy": 7614,
      "lson": 7615,
      "lberg": 7616,
      "lise": 7617,
      "loÃ«": 7618,
      "mo": 7619,
      "mle": 7620,
      "mash": 7621,
      "mod": 7622,
      "mick": 7623,
      "mark": 7624,
      "mona": 7625,
      "miga": 7626,
      "mando": 7627,
      "ng": 7628,
      "nus": 7629,
      "not": 7630,
      "nik": 7631,
      "nick": 7632,
      "pay": 7633,
      "pres": 7634,
      "pkog": 7635,
      "qi": 7636,
      "rd": 7637,
      "rn": 7638,
      "rong": 7639,
      "rera": 7640,
      "sal": 7641,
      "sak": 7642,
      "shen": 7643,
      "sound": 7644,
      "saan": 7645,
      "sgÃ¥": 7646,
      "touri": 7647,
      "tori": 7648,
      "uya": 7649,
      "uve": 7650,
      "ufeld": 7651,
      "vy": 7652,
      "vest": 7653,
      "vna": 7654,
      "vyn": 7655,
      "won": 7656,
      "wai": 7657,
      "waj": 7658,
      "wuk": 7659,
      "yer": 7660,
      "yon": 7661,
      "yen": 7662,
      "yot": 7663,
      "ythe": 7664,
      "yama": 7665,
      "zard": 7666,
      "zsc": 7667,
      "znick": 7668,
      "¤r": 7669,
      "¯s": 7670,
      "Ãī": 7671,
      "Åŀ": 7672,
      "erin": 7673,
      "eron": 7674,
      "eric": 7675,
      "erie": 7676,
      "erling": 7677,
      "erstein": 7678,
      "erite": 7679,
      "arine": 7680,
      "arang": 7681,
      "arence": 7682,
      "inchmann": 7683,
      "anid": 7684,
      "anson": 7685,
      "anathan": 7686,
      "stri": 7687,
      "stier": 7688,
      "stogan": 7689,
      "iliani": 7690,
      "rel": 7691,
      "het": 7692,
      "hesh": 7693,
      "hett": 7694,
      "heimer": 7695,
      "orff": 7696,
      "enbaum": 7697,
      "enakshi": 7698,
      "enheimer": 7699,
      "rix": 7700,
      "riana": 7701,
      "riaga": 7702,
      "rigues": 7703,
      "aled": 7704,
      "alSc": 7705,
      "alein": 7706,
      "alzi": 7707,
      "Thea": 7708,
      "Thet": 7709,
      "Theodor": 7710,
      "atas": 7711,
      "atov": 7712,
      "atman": 7713,
      "atova": 7714,
      "atoly": 7715,
      "assen": 7716,
      "esÅĤ": 7717,
      "esnik": 7718,
      "roor": 7719,
      "roian": 7720,
      "rouss": 7721,
      "roslav": 7722,
      "amma": 7723,
      "amia": 7724,
      "omi": 7725,
      "omon": 7726,
      "omsky": 7727,
      "elal": 7728,
      "user": 7729,
      "oso": 7730,
      "uchi": 7731,
      "uchel": 7732,
      "itow": 7733,
      "eton": 7734,
      "etmar": 7735,
      "aykin": 7736,
      "ayuki": 7737,
      "adle": 7738,
      "adore": 7739,
      "adharan": 7740,
      "ola": 7741,
      "olay": 7742,
      "olini": 7743,
      "rault": 7744,
      "ouji": 7745,
      "oustier": 7746,
      "urana": 7747,
      "haud": 7748,
      "haff": 7749,
      "hagi": 7750,
      "hauser": 7751,
      "oviÄĩ": 7752,
      "ersen": 7753,
      "ersic": 7754,
      "chter": 7755,
      "laiman": 7756,
      "cke": 7757,
      "manian": 7758,
      "manta": 7759,
      "nequin": 7760,
      "Anu": 7761,
      "Anil": 7762,
      "Anand": 7763,
      "Anam": 7764,
      "Anub": 7765,
      "Anya": 7766,
      "Anker": 7767,
      "Anushka": 7768,
      "AnaÃ": 7769,
      "Anatoly": 7770,
      "gee": 7771,
      "gei": 7772,
      "akov": 7773,
      "ieff": 7774,
      "imuth": 7775,
      "avo": 7776,
      "avai": 7777,
      "avtsev": 7778,
      "avolini": 7779,
      "ente": 7780,
      "entzsc": 7781,
      "athon": 7782,
      "arton": 7783,
      "artier": 7784,
      "eves": 7785,
      "eme": 7786,
      "emmle": 7787,
      "Sho": 7788,
      "Shant": 7789,
      "Short": 7790,
      "Shane": 7791,
      "Shree": 7792,
      "Shib": 7793,
      "Shields": 7794,
      "Shih": 7795,
      "Shinde": 7796,
      "Shvor": 7797,
      "Shyama": 7798,
      "Sherin": 7799,
      "Shouji": 7800,
      "Shieff": 7801,
      "ohoe": 7802,
      "2012": 7803,
      "2014": 7804,
      "iface": 7805,
      "Thamp": 7806,
      "Thuzar": 7807,
      "Thurston": 7808,
      "Thulasidas": 7809,
      "Thiess": 7810,
      "ryn": 7811,
      "ryavtsev": 7812,
      "Marat": 7813,
      "Marit": 7814,
      "Marie": 7815,
      "Marian": 7816,
      "Maria": 7817,
      "Marvan": 7818,
      "Marcus": 7819,
      "Margu": 7820,
      "Marius": 7821,
      "Martha": 7822,
      "Margaret": 7823,
      "Roth": 7824,
      "Roder": 7825,
      "Rogell": 7826,
      "Chi": 7827,
      "Chant": 7828,
      "Chung": 7829,
      "Chase": 7830,
      "Chih": 7831,
      "Chitra": 7832,
      "Chithra": 7833,
      "Chriqui": 7834,
      "Champlin": 7835,
      "Chatterton": 7836,
      "Chitralekha": 7837,
      "ChloÃ«": 7838,
      "Chomsky": 7839,
      "Chaykin": 7840,
      "Chartier": 7841,
      "Alam": 7842,
      "Alice": 7843,
      "Alta": 7844,
      "Aldo": 7845,
      "Alpine": 7846,
      "AlataÅŁ": 7847,
      "Algee": 7848,
      "Stell": 7849,
      "Stine": 7850,
      "Stac": 7851,
      "Stiller": 7852,
      "Street": 7853,
      "States": 7854,
      "Stanton": 7855,
      "Standing": 7856,
      "Stanford": 7857,
      "Stallone": 7858,
      "Struthers": 7859,
      "Streisand": 7860,
      "Stephanie": 7861,
      "Steenburgen": 7862,
      "Steind": 7863,
      "Strong": 7864,
      "umdar": 7865,
      "aght": 7866,
      "ello": 7867,
      "reno": 7868,
      "eyner": 7869,
      "hia": 7870,
      "hikar": 7871,
      "hiko": 7872,
      "hijit": 7873,
      "hiqi": 7874,
      "epankar": 7875,
      "ineer": 7876,
      "macher": 7877,
      "hta": 7878,
      "anty": 7879,
      "iko": 7880,
      "ikoff": 7881,
      "ender": 7882,
      "Meter": 7883,
      "Meera": 7884,
      "Mejo": 7885,
      "Megerdichev": 7886,
      "Meenakshi": 7887,
      "Mehta": 7888,
      "Bliss": 7889,
      "Block": 7890,
      "Blanton": 7891,
      "Blowers": 7892,
      "Blythe": 7893,
      "edyth": 7894,
      "Mann": 7895,
      "Manson": 7896,
      "Manini": 7897,
      "Manuel": 7898,
      "Manisha": 7899,
      "Manny": 7900,
      "Manimala": 7901,
      "Manjinder": 7902,
      "Mansell": 7903,
      "Mansfield": 7904,
      "Maneesh": 7905,
      "Manfredi": 7906,
      "awski": 7907,
      "ubaru": 7908,
      "Andersen": 7909,
      "herd": 7910,
      "Goode": 7911,
      "Goodwin": 7912,
      "Myat": 7913,
      "Myint": 7914,
      "Mychael": 7915,
      "Amin": 7916,
      "Amanda": 7917,
      "Amato": 7918,
      "Amarnani": 7919,
      "Amrutha": 7920,
      "LeBar": 7921,
      "LeRoy": 7922,
      "Leigh": 7923,
      "LeSaint": 7924,
      "Leuwerik": 7925,
      "Leelavathi": 7926,
      "Carey": 7927,
      "Carole": 7928,
      "Carthy": 7929,
      "Carewe": 7930,
      "ajoli": 7931,
      "ajyot": 7932,
      "ickman": 7933,
      "Franz": 7934,
      "France": 7935,
      "Barber": 7936,
      "Barker": 7937,
      "Barcklind": 7938,
      "Barrel": 7939,
      "Barrault": 7940,
      "obus": 7941,
      "Murer": 7942,
      "Murthy": 7943,
      "Murray": 7944,
      "Murillo": 7945,
      "Muratov": 7946,
      "Quan": 7947,
      "Quirk": 7948,
      "Quinn": 7949,
      "Quillan": 7950,
      "Quaid": 7951,
      "achim": 7952,
      "1957": 7953,
      "Spacey": 7954,
      "Sperling": 7955,
      "Scalzi": 7956,
      "Schaff": 7957,
      "Scavolini": 7958,
      "Arts": 7959,
      "Archer": 7960,
      "Arata": 7961,
      "Arden": 7962,
      "Arnold": 7963,
      "Arvid": 7964,
      "Arshad": 7965,
      "Arpita": 7966,
      "Arjum": 7967,
      "Armando": 7968,
      "Arriaga": 7969,
      "uka": 7970,
      "ukh": 7971,
      "Herman": 7972,
      "Herdy": 7973,
      "Herrera": 7974,
      "Neal": 7975,
      "Neuss": 7976,
      "Neumann": 7977,
      "Nekfe": 7978,
      "Neufeld": 7979,
      "Edeson": 7980,
      "Eddy": 7981,
      "Eduardo": 7982,
      "Jessie": 7983,
      "Harman": 7984,
      "Harald": 7985,
      "Harris": 7986,
      "Harrow": 7987,
      "Harlan": 7988,
      "Harikrishna": 7989,
      "Donn": 7990,
      "Donohoe": 7991,
      "therford": 7992,
      "Smoly": 7993,
      "Swami": 7994,
      "Sweet": 7995,
      "Swamy": 7996,
      "Swope": 7997,
      "Swanson": 7998,
      "Malik": 7999,
      "Malcol": 8000,
      "Malladi": 8001,
      "gleton": 8002,
      "deMille": 8003,
      "deWilde": 8004,
      "Roberta": 8005,
      "Roberto": 8006,
      "Roberts": 8007,
      "Paras": 8008,
      "ParÃ©": 8009,
      "Parlor": 8010,
      "Paravai": 8011,
      "orskaya": 8012,
      "Dean": 8013,
      "Deane": 8014,
      "Dewan": 8015,
      "Deeley": 8016,
      "Deepankar": 8017,
      "Mrs": 8018,
      "Olive": 8019,
      "Goring": 8020,
      "Goes": 8021,
      "Goth": 8022,
      "Gobert": 8023,
      "Indian": 8024,
      "Institute": 8025,
      "Ingleton": 8026,
      "eldine": 8027,
      "Guiller": 8028,
      "Guho": 8029,
      "okubaru": 8030,
      "Rosshan": 8031,
      "Roscoe": 8032,
      "Rosalyn": 8033,
      "Rosengren": 8034,
      "huish": 8035,
      "Twain": 8036,
      "Twomey": 8037,
      "Brook": 8038,
      "Jeon": 8039,
      "Jeeva": 8040,
      "Dix": 8041,
      "Dietmar": 8042,
      "Elam": 8043,
      "Ella": 8044,
      "Elie": 8045,
      "Elwa": 8046,
      "Elissa": 8047,
      "Onwuk": 8048,
      "rabarty": 8049,
      "Christine": 8050,
      "Christina": 8051,
      "Christensen": 8052,
      "Casembroot": 8053,
      "Samberg": 8054,
      "einali": 8055,
      "Bert": 8056,
      "Berlin": 8057,
      "Berger": 8058,
      "Bergh": 8059,
      "Berivan": 8060,
      "Berthels": 8061,
      "Beranger": 8062,
      "Berglund": 8063,
      "Jonathon": 8064,
      "engineer": 8065,
      "Tracey": 8066,
      "insale": 8067,
      "Devi": 8068,
      "Devane": 8069,
      "Devarajan": 8070,
      "Frankenheimer": 8071,
      "Conley": 8072,
      "Conway": 8073,
      "Contemporary": 8074,
      "Conaway": 8075,
      "Contouri": 8076,
      "Milian": 8077,
      "Milton": 8078,
      "Milind": 8079,
      "Milani": 8080,
      "Milby": 8081,
      "Taiko": 8082,
      "Doumanian": 8083,
      "Pauline": 8084,
      "Vale": 8085,
      "Bhaumik": 8086,
      "Bhavani": 8087,
      "Bhavna": 8088,
      "Josseline": 8089,
      "Joshua": 8090,
      "Satish": 8091,
      "Deschanel": 8092,
      "Henie": 8093,
      "Henley": 8094,
      "Henabery": 8095,
      "Henriksen": 8096,
      "Hennequin": 8097,
      "Beal": 8098,
      "Behren": 8099,
      "Heaven": 8100,
      "Hemant": 8101,
      "Hemanta": 8102,
      "Vinay": 8103,
      "Vincenzo": 8104,
      "dalle": 8105,
      "Minoru": 8106,
      "Adil": 8107,
      "Adam": 8108,
      "Adoor": 8109,
      "Adriana": 8110,
      "Adhikar": 8111,
      "Sheshadri": 8112,
      "Walt": 8113,
      "Walsh": 8114,
      "Walston": 8115,
      "Walerstein": 8116,
      "Joan": 8117,
      "Joachim": 8118,
      "Sean": 8119,
      "Seitz": 8120,
      "Sewell": 8121,
      "Seagal": 8122,
      "Sidhiqi": 8123,
      "Chaw": 8124,
      "Chaz": 8125,
      "Chaim": 8126,
      "Chazz": 8127,
      "Chauvel": 8128,
      "Lyon": 8129,
      "Lyell": 8130,
      "OrbÃ³": 8131,
      "Laemmle": 8132,
      "Solomon": 8133,
      "Clara": 8134,
      "Cloche": 8135,
      "Clarence": 8136,
      "Gale": 8137,
      "Nino": 8138,
      "Sonya": 8139,
      "Sonja": 8140,
      "Annette": 8141,
      "Brar": 8142,
      "Brunette": 8143,
      "Brinchmann": 8144,
      "Forest": 8145,
      "Sethum": 8146,
      "Loren": 8147,
      "Raja": 8148,
      "Rajat": 8149,
      "Rajesh": 8150,
      "Rajendra": 8151,
      "Rajwade": 8152,
      "Angela": 8153,
      "Jaya": 8154,
      "Jayasudha": 8155,
      "Lawson": 8156,
      "Lawler": 8157,
      "McKenzie": 8158,
      "McCormick": 8159,
      "McKenna": 8160,
      "McAvoy": 8161,
      "McCarthy": 8162,
      "McElwa": 8163,
      "Graeme": 8164,
      "Monnot": 8165,
      "Richardson": 8166,
      "Nicola": 8167,
      "Tomas": 8168,
      "Malayil": 8169,
      "Oldman": 8170,
      "Erland": 8171,
      "Ernie": 8172,
      "Erbs": 8173,
      "Naismith": 8174,
      "Noel": 8175,
      "Whitson": 8176,
      "Whitney": 8177,
      "Basil": 8178,
      "Kyunna": 8179,
      "Mihir": 8180,
      "Miroslav": 8181,
      "Morales": 8182,
      "Morosco": 8183,
      "Miser": 8184,
      "Mischa": 8185,
      "Tokarefu": 8186,
      "ibin": 8187,
      "vaag": 8188,
      "vauchel": 8189,
      "Newfield": 8190,
      "Newbrook": 8191,
      "Bernie": 8192,
      "Bernthal": 8193,
      "Bernstine": 8194,
      "Callis": 8195,
      "Ridley": 8196,
      "Frances": 8197,
      "Francine": 8198,
      "Hopper": 8199,
      "Hopkins": 8200,
      "Mervyn": 8201,
      "Meredyth": 8202,
      "Evelyn": 8203,
      "Madeline": 8204,
      "Madonna": 8205,
      "Madeleine": 8206,
      "North": 8207,
      "Noruz": 8208,
      "Treva": 8209,
      "Treacher": 8210,
      "Trejo": 8211,
      "Wei": 8212,
      "Weerasinghe": 8213,
      "Andreassen": 8214,
      "Abi": 8215,
      "Abel": 8216,
      "Abby": 8217,
      "Abdol": 8218,
      "Abhijit": 8219,
      "Karan": 8220,
      "Karakum": 8221,
      "Karsak": 8222,
      "ilym": 8223,
      "Sharp": 8224,
      "Sharad": 8225,
      "Sharrett": 8226,
      "Sharreth": 8227,
      "Debajyot": 8228,
      "ekind": 8229,
      "cheroni": 8230,
      "Greenstreet": 8231,
      "Israel": 8232,
      "Isabelle": 8233,
      "Isadore": 8234,
      "Pinkett": 8235,
      "Willy": 8236,
      "Willingale": 8237,
      "Maya": 8238,
      "Mayukh": 8239,
      "Dayanid": 8240,
      "Glen": 8241,
      "Glukoza": 8242,
      "Glickman": 8243,
      "Globus": 8244,
      "Maury": 8245,
      "Mahesh": 8246,
      "Andrews": 8247,
      "Attila": 8248,
      "Crabbe": 8249,
      "Dhawan": 8250,
      "Khin": 8251,
      "Kharkongor": 8252,
      "Khaled": 8253,
      "Khurana": 8254,
      "Koliyan": 8255,
      "Kolesnik": 8256,
      "Menahe": 8257,
      "Melhuish": 8258,
      "Naughton": 8259,
      "ucci": 8260,
      "Rama": 8261,
      "Ramakrishna": 8262,
      "Ramchandra": 8263,
      "Sanjana": 8264,
      "Sanucci": 8265,
      "quelin": 8266,
      "Bouchra": 8267,
      "Boatman": 8268,
      "Brent": 8269,
      "Corrigan": 8270,
      "Schuster": 8271,
      "Schwart": 8272,
      "Terence": 8273,
      "Terrence": 8274,
      "Terhune": 8275,
      "suomi": 8276,
      "Asin": 8277,
      "Asit": 8278,
      "Asrani": 8279,
      "Asphaug": 8280,
      "Baur": 8281,
      "Bhasi": 8282,
      "Bhadra": 8283,
      "Claire": 8284,
      "Darmond": 8285,
      "Darling": 8286,
      "Darshan": 8287,
      "Darrouss": 8288,
      "Emile": 8289,
      "Emmanuelle": 8290,
      "Fredrik": 8291,
      "Hidari": 8292,
      "Kiran": 8293,
      "Kirat": 8294,
      "Kirill": 8295,
      "Nagel": 8296,
      "Nagavally": 8297,
      "Nagibin": 8298,
      "Priyanka": 8299,
      "Reformers": 8300,
      "Reeves": 8301,
      "Marshall": 8302,
      "Bright": 8303,
      "Disha": 8304,
      "kumaran": 8305,
      "Jefferson": 8306,
      "Alexey": 8307,
      "Alexander": 8308,
      "Lucy": 8309,
      "Lucinda": 8310,
      "Sims": 8311,
      "Simms": 8312,
      "Simbahan": 8313,
      "afa": 8314,
      "Benrath": 8315,
      "Diva": 8316,
      "Kaylin": 8317,
      "Salim": 8318,
      "Salje": 8319,
      "Salauddin": 8320,
      "Saltykov": 8321,
      "Sundar": 8322,
      "Supriya": 8323,
      "Tenbrook": 8324,
      "Takao": 8325,
      "Wharton": 8326,
      "Keo": 8327,
      "Keach": 8328,
      "Keays": 8329,
      "Keitel": 8330,
      "Lockney": 8331,
      "Lockwood": 8332,
      "Lockyer": 8333,
      "Winters": 8334,
      "Josephs": 8335,
      "Burr": 8336,
      "Burke": 8337,
      "Burfield": 8338,
      "Jacqueline": 8339,
      "Jacquelin": 8340,
      "Maxwell": 8341,
      "tiis": 8342,
      "Colin": 8343,
      "Coles": 8344,
      "Colbert": 8345,
      "Colomb": 8346,
      "Cleminson": 8347,
      "Garry": 8348,
      "Garland": 8349,
      "Garmash": 8350,
      "Garrigues": 8351,
      "Houda": 8352,
      "Houghton": 8353,
      "Hartford": 8354,
      "Julie": 8355,
      "Julius": 8356,
      "Matteo": 8357,
      "Piero": 8358,
      "Revel": 8359,
      "Revell": 8360,
      "Warlock": 8361,
      "Danielle": 8362,
      "Jerome": 8363,
      "Jeremiah": 8364,
      "Mason": 8365,
      "Masud": 8366,
      "Masroor": 8367,
      "Masayuki": 8368,
      "Mascheroni": 8369,
      "Mortimer": 8370,
      "Shah": 8371,
      "Shaffer": 8372,
      "Shavelson": 8373,
      "Shabnur": 8374,
      "Shastri": 8375,
      "Sathyaneshan": 8376,
      "Trond": 8377,
      "Trask": 8378,
      "Trillo": 8379,
      "Trudeau": 8380,
      "Tratas": 8381,
      "United": 8382,
      "Unsell": 8383,
      "Unsal": 8384,
      "Vidhi": 8385,
      "Vidyasagar": 8386,
      "Barrymore": 8387,
      "Davies": 8388,
      "Grier": 8389,
      "IvanÄį": 8390,
      "Louis": 8391,
      "Saunders": 8392,
      "Laurentiis": 8393,
      "Balachandran": 8394,
      "Chechik": 8395,
      "Chevy": 8396,
      "Cheadle": 8397,
      "Dickey": 8398,
      "Earle": 8399,
      "Earth": 8400,
      "Fuente": 8401,
      "Hetfield": 8402,
      "Hunter": 8403,
      "Hagan": 8404,
      "Hawke": 8405,
      "Kumarimuth": 8406,
      "Lanier": 8407,
      "Lanfield": 8408,
      "Moreno": 8409,
      "Ohlson": 8410,
      "Perkins": 8411,
      "Perrier": 8412,
      "Perlberg": 8413,
      "Sophia": 8414,
      "iyama": 8415,
      "iyamma": 8416,
      "tzer": 8417,
      "Alijome": 8418,
      "Miraq": 8419,
      "Cecily": 8420,
      "Foray": 8421,
      "Force": 8422,
      "Forster": 8423,
      "Forrest": 8424,
      "Gaon": 8425,
      "GaÃ«l": 8426,
      "Gering": 8427,
      "Gerard": 8428,
      "Geraldine": 8429,
      "Geraght": 8430,
      "Janet": 8431,
      "Janne": 8432,
      "Janya": 8433,
      "Janssen": 8434,
      "Lindroth": 8435,
      "Nikhil": 8436,
      "Nikita": 8437,
      "Nikbakht": 8438,
      "Nikolay": 8439,
      "Palmer": 8440,
      "Palance": 8441,
      "Palansky": 8442,
      "Palminteri": 8443,
      "Sydney": 8444,
      "Symona": 8445,
      "Szer": 8446,
      "Szen": 8447,
      "Szeps": 8448,
      "Szamosi": 8449,
      "Sarhadi": 8450,
      "Saroja": 8451,
      "Saravanan": 8452,
      "Sarvottam": 8453,
      "Veit": 8454,
      "Veiller": 8455,
      "Veale": 8456,
      "Veidt": 8457,
      "Warden": 8458,
      "Woods": 8459,
      "Woodell": 8460,
      "Woodward": 8461,
      "Marcello": 8462,
      "Alfredo": 8463,
      "Stormare": 8464,
      "Beckinsale": 8465,
      "Adolphson": 8466,
      "Braddon": 8467,
      "Kenne": 8468,
      "Kenyon": 8469,
      "Kimberly": 8470,
      "Padmini": 8471,
      "Bisio": 8472,
      "Badland": 8473,
      "Graynor": 8474,
      "Hoskins": 8475,
      "Hoseinali": 8476,
      "Hellman": 8477,
      "Kopple": 8478,
      "Moses": 8479,
      "Mohammed": 8480,
      "Mohanty": 8481,
      "Peace": 8482,
      "Randy": 8483,
      "Rahim": 8484,
      "Rahul": 8485,
      "Wilfred": 8486,
      "Zhang": 8487,
      "Zhalay": 8488,
      "Rodgers": 8489,
      "Swapnil": 8490,
      "Rossano": 8491,
      "Julianne": 8492,
      "Braun": 8493,
      "Bracken": 8494,
      "Brazzi": 8495,
      "Brandy": 8496,
      "Brandon": 8497,
      "Blackmer": 8498,
      "Dillane": 8499,
      "Farmiga": 8500,
      "Genina": 8501,
      "Juanita": 8502,
      "Kathleen": 8503,
      "Katharine": 8504,
      "Kathryn": 8505,
      "Kenneth": 8506,
      "Masterson": 8507,
      "Mastrantonio": 8508,
      "Mastroian": 8509,
      "Mackenzie": 8510,
      "MacKenzie": 8511,
      "MacLennan": 8512,
      "Macgowan": 8513,
      "Natan": 8514,
      "Natarang": 8515,
      "Nitesh": 8516,
      "Ricard": 8517,
      "Ricci": 8518,
      "Riccardo": 8519,
      "Roma": 8520,
      "Romi": 8521,
      "Romantic": 8522,
      "Rashid": 8523,
      "Rituparna": 8524,
      "Sulaiman": 8525,
      "Sergei": 8526,
      "Silver": 8527,
      "Silva": 8528,
      "Silvest": 8529,
      "Vivian": 8530,
      "Vivica": 8531,
      "Vivienne": 8532,
      "Welling": 8533,
      "amatsu": 8534,
      "Anthikad": 8535,
      "Blancke": 8536,
      "Leonid": 8537,
      "Carlo": 8538,
      "Barbra": 8539,
      "Shepherd": 8540,
      "Venkata": 8541,
      "Ashwath": 8542,
      "Birgit": 8543,
      "Balderston": 8544,
      "Coates": 8545,
      "Cobb": 8546,
      "Cornelia": 8547,
      "Cummins": 8548,
      "Geoffrey": 8549,
      "Ganesan": 8550,
      "Gastaldi": 8551,
      "Haentzsc": 8552,
      "Hyland": 8553,
      "Hariharan": 8554,
      "Junji": 8555,
      "Koules": 8556,
      "Kapoor": 8557,
      "Lavlu": 8558,
      "Levinson": 8559,
      "Michel": 8560,
      "Otis": 8561,
      "Pilbeam": 8562,
      "Renfrew": 8563,
      "Rachael": 8564,
      "Suketu": 8565,
      "Tegan": 8566,
      "Tamzin": 8567,
      "Vaid": 8568,
      "Viktori": 8569,
      "Yehoram": 8570,
      "YÅįko": 8571,
      "Valentin": 8572,
      "Petersson": 8573,
      "Schlechter": 8574,
      "Makaroff": 8575,
      "Eugeniu": 8576,
      "Ayres": 8577,
      "Aykroy": 8578,
      "Astin": 8579,
      "Astaire": 8580,
      "Augusto": 8581,
      "Augustus": 8582,
      "Belle": 8583,
      "Belinda": 8584,
      "Bashung": 8585,
      "Basharov": 8586,
      "Byrd": 8587,
      "Byrne": 8588,
      "Castro": 8589,
      "Castillo": 8590,
      "Danza": 8591,
      "Drake": 8592,
      "Dragana": 8593,
      "Eiji": 8594,
      "Eirik": 8595,
      "Finlay": 8596,
      "Fincher": 8597,
      "Fritzi": 8598,
      "Gaynor": 8599,
      "Gayday": 8600,
      "Gibson": 8601,
      "Giblin": 8602,
      "Horan": 8603,
      "Horizon": 8604,
      "Hayman": 8605,
      "Haywood": 8606,
      "Henner": 8607,
      "Henning": 8608,
      "Hazel": 8609,
      "Hazeldine": 8610,
      "Justus": 8611,
      "Justice": 8612,
      "Jennings": 8613,
      "Jennifer": 8614,
      "Jobyna": 8615,
      "Kosugi": 8616,
      "Kosleck": 8617,
      "Kunchacko": 8618,
      "Kunjik": 8619,
      "Kristy": 8620,
      "Kristopher": 8621,
      "Levine": 8622,
      "Levitow": 8623,
      "Muza": 8624,
      "Muhammed": 8625,
      "Miranda": 8626,
      "Mirza": 8627,
      "Millie": 8628,
      "Millhauser": 8629,
      "Messner": 8630,
      "Messina": 8631,
      "Nicky": 8632,
      "Osborne": 8633,
      "Osborn": 8634,
      "Platt": 8635,
      "Plumb": 8636,
      "Pamela": 8637,
      "Pranks": 8638,
      "Raat": 8639,
      "RaÃº": 8640,
      "Ratner": 8641,
      "Ratheesh": 8642,
      "Rohana": 8643,
      "Rohini": 8644,
      "Senji": 8645,
      "Selznick": 8646,
      "Seltzer": 8647,
      "Sigmund": 8648,
      "Topo": 8649,
      "Topol": 8650,
      "Walling": 8651,
      "Wallis": 8652,
      "mikant": 8653,
      "Äįev": 8654,
      "Antonia": 8655,
      "Shivdasani": 8656,
      "Shiko": 8657,
      "Shikder": 8658,
      "Marilu": 8659,
      "Marilyn": 8660,
      "Stefan": 8661,
      "Stefano": 8662,
      "Blanchett": 8663,
      "Mankoff": 8664,
      "Mankiewicz": 8665,
      "AndrÃ©": 8666,
      "Andrrews": 8667,
      "Arlen": 8668,
      "Arliss": 8669,
      "Ingster": 8670,
      "Ingrid": 8671,
      "Rosenthal": 8672,
      "Elijah": 8673,
      "Eliseev": 8674,
      "Samadi": 8675,
      "Samaha": 8676,
      "Chakri": 8677,
      "Chakrabarty": 8678,
      "McGinley": 8679,
      "McGowan": 8680,
      "Ernesto": 8681,
      "Moriarty": 8682,
      "ashikokubaru": 8683,
      "Madhavi": 8684,
      "Madhabi": 8685,
      "Bhowmik": 8686,
      "Bhowmick": 8687,
      "Bhattal": 8688,
      "Claudine": 8689,
      "Claudette": 8690,
      "Svenson": 8691,
      "Sylvia": 8692,
      "Sylvester": 8693,
      "Blanchon": 8694,
      "Blanchard": 8695,
      "Venkatesh": 8696,
      "Canova": 8697,
      "Downey": 8698,
      "Kelkar": 8699,
      "Ranjan": 8700,
      "Wheeler": 8701,
      "aolalla": 8702,
      "Chinar": 8703,
      "Agren": 8704,
      "Atif": 8705,
      "Azhagi": 8706,
      "Aurvaag": 8707,
      "Aranov": 8708,
      "Akarsh": 8709,
      "Ayaz": 8710,
      "Atsma": 8711,
      "Avinash": 8712,
      "Ascaride": 8713,
      "Biber": 8714,
      "BÃ¤r": 8715,
      "Bilhaud": 8716,
      "Boniface": 8717,
      "Boswell": 8718,
      "Bayard": 8719,
      "BolesÅĤ": 8720,
      "Blair": 8721,
      "Bakalein": 8722,
      "Baumann": 8723,
      "Bryggman": 8724,
      "Britton": 8725,
      "Borderie": 8726,
      "Belden": 8727,
      "Bengi": 8728,
      "Buttolph": 8729,
      "Bodegas": 8730,
      "Bixio": 8731,
      "BjÃ¶rn": 8732,
      "Creanga": 8733,
      "Cameron": 8734,
      "Cotton": 8735,
      "CristiÃ¡n": 8736,
      "Corsari": 8737,
      "Clint": 8738,
      "Corneanu": 8739,
      "Caillou": 8740,
      "Cumbuka": 8741,
      "Caveny": 8742,
      "Duvauchel": 8743,
      "Dolman": 8744,
      "Dakota": 8745,
      "Demoustier": 8746,
      "Drynan": 8747,
      "Danny": 8748,
      "Deneuve": 8749,
      "Diramore": 8750,
      "Dushmant": 8751,
      "Dreyfus": 8752,
      "Dudgeon": 8753,
      "Ehsaan": 8754,
      "Ezhov": 8755,
      "Eaton": 8756,
      "Egea": 8757,
      "Eshpay": 8758,
      "Eberts": 8759,
      "Emmony": 8760,
      "Etienne": 8761,
      "Freed": 8762,
      "Films": 8763,
      "Frizzi": 8764,
      "Federic": 8765,
      "Fiona": 8766,
      "Fresu": 8767,
      "Fanning": 8768,
      "Firstenberg": 8769,
      "Florin": 8770,
      "Farnoosh": 8771,
      "Fletcher": 8772,
      "Friedrich": 8773,
      "Fausa": 8774,
      "Gmeyner": 8775,
      "Gwilym": 8776,
      "Grothe": 8777,
      "Gangadharan": 8778,
      "Gustavo": 8779,
      "Gittens": 8780,
      "Gubenko": 8781,
      "Glynn": 8782,
      "Honey": 8783,
      "Hamada": 8784,
      "Hurd": 8785,
      "Higashikokubaru": 8786,
      "Hendrix": 8787,
      "Hageman": 8788,
      "Honegger": 8789,
      "Hahn": 8790,
      "Hollaender": 8791,
      "Hussain": 8792,
      "Hidehiko": 8793,
      "Horiuchi": 8794,
      "Iwamatsu": 8795,
      "Iommi": 8796,
      "Ignatova": 8797,
      "JovoviÄĩ": 8798,
      "Jianya": 8799,
      "Joundi": 8800,
      "Jablonsky": 8801,
      "Koike": 8802,
      "Krepkog": 8803,
      "Kudryavtsev": 8804,
      "Kobayashi": 8805,
      "Kazamia": 8806,
      "Kirsty": 8807,
      "Kensuke": 8808,
      "LuÄįev": 8809,
      "Lilyan": 8810,
      "Landor": 8811,
      "Lamar": 8812,
      "Liviu": 8813,
      "Lollu": 8814,
      "Lippert": 8815,
      "Lottie": 8816,
      "Laxmikant": 8817,
      "Laraine": 8818,
      "Larnicol": 8819,
      "Levien": 8820,
      "Molin": 8821,
      "Muniyamma": 8822,
      "Martyn": 8823,
      "Magnus": 8824,
      "Mireille": 8825,
      "Mikhal": 8826,
      "Maidie": 8827,
      "Moretz": 8828,
      "Majumdar": 8829,
      "Mustafa": 8830,
      "Mizuki": 8831,
      "Maysam": 8832,
      "Madambu": 8833,
      "Mochrie": 8834,
      "Movietone": 8835,
      "Niiyama": 8836,
      "Nuyen": 8837,
      "Nayyar": 8838,
      "Nadar": 8839,
      "Nakano": 8840,
      "Nettles": 8841,
      "Naina": 8842,
      "Okada": 8843,
      "Ousdal": 8844,
      "Paolo": 8845,
      "Piersic": 8846,
      "Professor": 8847,
      "Powell": 8848,
      "Pivio": 8849,
      "Pollock": 8850,
      "Pollack": 8851,
      "Perez": 8852,
      "Preston": 8853,
      "PrimalSc": 8854,
      "Poddany": 8855,
      "Pyarelal": 8856,
      "Qiong": 8857,
      "Rutherford": 8858,
      "Raposo": 8859,
      "Reynolds": 8860,
      "Ranganathan": 8861,
      "Rollin": 8862,
      "Ryszard": 8863,
      "Snider": 8864,
      "Singleton": 8865,
      "Soriano": 8866,
      "Suchet": 8867,
      "Sauro": 8868,
      "Sabha": 8869,
      "Sapienz": 8870,
      "Santaolalla": 8871,
      "SkarsgÃ¥": 8872,
      "Sinden": 8873,
      "Sadaf": 8874,
      "Sreekumaran": 8875,
      "Sandrine": 8876,
      "Service": 8877,
      "Sashikanth": 8878,
      "Tanenbaum": 8879,
      "Tatsuomi": 8880,
      "Titus": 8881,
      "Tayo": 8882,
      "Tolstogan": 8883,
      "Tavor": 8884,
      "Tashman": 8885,
      "Tarkington": 8886,
      "Tokie": 8887,
      "Tanuja": 8888,
      "Trovajoli": 8889,
      "Tempera": 8890,
      "Udaya": 8891,
      "Ullah": 8892,
      "Umiliani": 8893,
      "Ureche": 8894,
      "Utermann": 8895,
      "Varvin": 8896,
      "Vesth": 8897,
      "Vishwaj": 8898,
      "Visser": 8899,
      "Vittorio": 8900,
      "Wymark": 8901,
      "Wandmacher": 8902,
      "Wedekind": 8903,
      "Waterman": 8904,
      "Womark": 8905,
      "Yogesh": 8906,
      "Yarbrough": 8907,
      "Yoshida": 8908,
      "Zaytsev": 8909,
      "hsien": 8910,
      "kuttan": 8911,
      "model": 8912,
      "presenter": 8913,
      "sheng": 8914,
      "Ãīlise": 8915,
      "Åŀenay": 8916,
      "Anubhav": 8917,
      "AnaÃ¯s": 8918,
      "Shantanu": 8919,
      "Shibuya": 8920,
      "Shvorin": 8921,
      "Thampi": 8922,
      "Marianelli": 8923,
      "Marguerite": 8924,
      "Roderick": 8925,
      "Chantal": 8926,
      "Chiharu": 8927,
      "Altaf": 8928,
      "Stellan": 8929,
      "Stacy": 8930,
      "Steindorff": 8931,
      "LeBaron": 8932,
      "Schaffel": 8933,
      "Arjumand": 8934,
      "Neusser": 8935,
      "Nekfeu": 8936,
      "Smolyakov": 8937,
      "Malcolm": 8938,
      "Guillermo": 8939,
      "Onwukwe": 8940,
      "Behrens": 8941,
      "Adhikari": 8942,
      "OrbÃ³k": 8943,
      "Sethumadhavan": 8944,
      "McElwaine": 8945,
      "Abdolali": 8946,
      "Debajyoti": 8947,
      "Dayanidhi": 8948,
      "Kolesnikov": 8949,
      "Menahem": 8950,
      "Schwartz": 8951,
      "Darroussin": 8952,
      "Colombier": 8953,
      "IvanÄįiÄĩ": 8954,
      "Kumarimuthu": 8955,
      "Geraghty": 8956,
      "Mastroianni": 8957,
      "Silvestri": 8958,
      "Haentzschel": 8959,
      "Viktoriya": 8960,
      "Aykroyd": 8961,
      "Kunjikkuttan": 8962,
      "RaÃºl": 8963,
      "Azhagiri": 8964,
      "BolesÅĤawski": 8965,
      "Bakaleinikoff": 8966,
      "Duvauchelle": 8967,
      "Federici": 8968,
      "Krepkogorskaya": 8969,
      "Mikhalkov": 8970,
      "PrimalScream": 8971,
      "Sapienza": 8972,
      "SkarsgÃ¥rd": 8973,
      "Tolstoganova": 8974,
      "Vishwajeet": 8975,
      "!,": 8976,
      "!-": 8977,
      "\"),": 8978,
      "',": 8979,
      "'.": 8980,
      "+.": 8981,
      "03": 8982,
      "15": 8983,
      "21": 8984,
      "28": 8985,
      "40": 8986,
      "528": 8987,
      "65": 8988,
      "68": 8989,
      "626": 8990,
      "72": 8991,
      ":<": 8992,
      "AC": 8993,
      "AG": 8994,
      "Apolit": 8995,
      "Ate": 8996,
      "BA": 8997,
      "BO": 8998,
      "CH": 8999,
      "Cab": 9000,
      "Critics": 9001,
      "En": 9002,
      "FA": 9003,
      "Face": 9004,
      "FCH": 9005,
      "Ginley": 9006,
      "HK": 9007,
      "IA": 9008,
      "ID": 9009,
      "ICA": 9010,
      "ILM": 9011,
      "MÃ©": 9012,
      "Mister": 9013,
      "NA": 9014,
      "OV": 9015,
      "OFCH": 9016,
      "PAC": 9017,
      "RM": 9018,
      "Semi": 9019,
      "TL": 9020,
      "UG": 9021,
      "Vision": 9022,
      "WIN": 9023,
      "YUG": 9024,
      "aing": 9025,
      "aff": 9026,
      "aily": 9027,
      "astard": 9028,
      "aasan": 9029,
      "aadh": 9030,
      "aquin": 9031,
      "bat": 9032,
      "bit": 9033,
      "ble": 9034,
      "bul": 9035,
      "based": 9036,
      "bug": 9037,
      "bec": 9038,
      "bach": 9039,
      "bited": 9040,
      "buster": 9041,
      "bbery": 9042,
      "brata": 9043,
      "body": 9044,
      "cer": 9045,
      "cil": 9046,
      "cre": 9047,
      "con": 9048,
      "comp": 9049,
      "cur": 9050,
      "cot": 9051,
      "cul": 9052,
      "cess": 9053,
      "cord": 9054,
      "cÃ©": 9055,
      "cip": 9056,
      "cour": 9057,
      "come": 9058,
      "count": 9059,
      "coming": 9060,
      "chap": 9061,
      "crime": 9062,
      "carn": 9063,
      "ched": 9064,
      "dh": 9065,
      "dro": 9066,
      "dad": 9067,
      "dle": 9068,
      "dran": 9069,
      "dress": 9070,
      "drew": 9071,
      "danda": 9072,
      "eam": 9073,
      "ead": 9074,
      "each": 9075,
      "eight": 9076,
      "edited": 9077,
      "fal": 9078,
      "fact": 9079,
      "fall": 9080,
      "fian": 9081,
      "fÃ©": 9082,
      "famil": 9083,
      "frey": 9084,
      "fante": 9085,
      "flu": 9086,
      "filling": 9087,
      "gm": 9088,
      "gr": 9089,
      "gs": 9090,
      "gw": 9091,
      "ged": 9092,
      "ges": 9093,
      "gow": 9094,
      "gard": 9095,
      "gram": 9096,
      "game": 9097,
      "gÃ©": 9098,
      "gade": 9099,
      "gate": 9100,
      "gala": 9101,
      "goes": 9102,
      "giver": 9103,
      "gude": 9104,
      "gative": 9105,
      "gations": 9106,
      "hat": 9107,
      "has": 9108,
      "hay": 9109,
      "how": 9110,
      "hot": 9111,
      "hop": 9112,
      "hna": 9113,
      "hang": 9114,
      "hern": 9115,
      "hatt": 9116,
      "hona": 9117,
      "halay": 9118,
      "hamp": 9119,
      "horror": 9120,
      "hando": 9121,
      "hdad": 9122,
      "iring": 9123,
      "ient": 9124,
      "iord": 9125,
      "iac": 9126,
      "iress": 9127,
      "irik": 9128,
      "ijah": 9129,
      "ju": 9130,
      "jar": 9131,
      "jad": 9132,
      "jab": 9133,
      "jilas": 9134,
      "kt": 9135,
      "kht": 9136,
      "kip": 9137,
      "krab": 9138,
      "klin": 9139,
      "khar": 9140,
      "kush": 9141,
      "krishna": 9142,
      "kinson": 9143,
      "kiewicz": 9144,
      "lif": 9145,
      "lier": 9146,
      "lane": 9147,
      "lict": 9148,
      "lott": 9149,
      "lga": 9150,
      "lated": 9151,
      "lists": 9152,
      "lled": 9153,
      "like": 9154,
      "lowe": 9155,
      "lough": 9156,
      "ltra": 9157,
      "lantic": 9158,
      "lared": 9159,
      "me": 9160,
      "my": 9161,
      "mit": 9162,
      "mot": 9163,
      "mud": 9164,
      "mort": 9165,
      "mug": 9166,
      "mates": 9167,
      "mila": 9168,
      "mons": 9169,
      "muller": 9170,
      "munist": 9171,
      "nar": 9172,
      "nst": 9173,
      "nas": 9174,
      "nes": 9175,
      "night": 9176,
      "napp": 9177,
      "nther": 9178,
      "nout": 9179,
      "nald": 9180,
      "naby": 9181,
      "named": 9182,
      "oad": 9183,
      "oid": 9184,
      "oke": 9185,
      "oise": 9186,
      "odies": 9187,
      "oose": 9188,
      "oondram": 9189,
      "pÃ": 9190,
      "par": 9191,
      "pil": 9192,
      "pre": 9193,
      "ped": 9194,
      "pes": 9195,
      "pos": 9196,
      "pul": 9197,
      "pson": 9198,
      "page": 9199,
      "pear": 9200,
      "pÃ¡": 9201,
      "prah": 9202,
      "pread": 9203,
      "piness": 9204,
      "piece": 9205,
      "plained": 9206,
      "piring": 9207,
      "rul": 9208,
      "rug": 9209,
      "rors": 9210,
      "rays": 9211,
      "rgen": 9212,
      "rude": 9213,
      "rative": 9214,
      "rales": 9215,
      "rrews": 9216,
      "rmila": 9217,
      "rpÃ¡": 9218,
      "sel": 9219,
      "sex": 9220,
      "sha": 9221,
      "sch": 9222,
      "sie": 9223,
      "sey": 9224,
      "saw": 9225,
      "sive": 9226,
      "sberg": 9227,
      "sui": 9228,
      "sabl": 9229,
      "sits": 9230,
      "sano": 9231,
      "side": 9232,
      "sues": 9233,
      "second": 9234,
      "solt": 9235,
      "sumes": 9236,
      "td": 9237,
      "tw": 9238,
      "tin": 9239,
      "tor": 9240,
      "tal": 9241,
      "tis": 9242,
      "tla": 9243,
      "ties": 9244,
      "tsc": 9245,
      "teen": 9246,
      "ture": 9247,
      "town": 9248,
      "trand": 9249,
      "trans": 9250,
      "tario": 9251,
      "titled": 9252,
      "tunes": 9253,
      "tions": 9254,
      "ued": 9255,
      "ule": 9256,
      "uest": 9257,
      "ubert": 9258,
      "uous": 9259,
      "uja": 9260,
      "ually": 9261,
      "uena": 9262,
      "ulah": 9263,
      "vt": 9264,
      "ven": 9265,
      "val": 9266,
      "vis": 9267,
      "vad": 9268,
      "vou": 9269,
      "vers": 9270,
      "vate": 9271,
      "vives": 9272,
      "vdÃ¡m": 9273,
      "video": 9274,
      "wed": 9275,
      "wro": 9276,
      "wall": 9277,
      "wif": 9278,
      "wife": 9279,
      "wight": 9280,
      "wali": 9281,
      "wide": 9282,
      "wauk": 9283,
      "willing": 9284,
      "wamy": 9285,
      "xican": 9286,
      "yal": 9287,
      "yes": 9288,
      "yth": 9289,
      "yman": 9290,
      "yap": 9291,
      "yres": 9292,
      "yberg": 9293,
      "yland": 9294,
      "ymp": 9295,
      "ypes": 9296,
      "zai": 9297,
      "zamosi": 9298,
      "¢ne": 9299,
      "¨res": 9300,
      "ªte": 9301,
      "«ãĥ": 9302,
      "¬ãĥ": 9303,
      "Äĥ": 9304,
      "ÄĽ": 9305,
      "Ġ,": 9306,
      "Ġ-": 9307,
      "ĠX": 9308,
      "Ġ[": 9309,
      "Ġer": 9310,
      "Ġdirect": 9311,
      "Ġom": 9312,
      "Ġel": 9313,
      "Ġet": 9314,
      "Ġproduc": 9315,
      "Ġra": 9316,
      "Ġran": 9317,
      "Ġmer": 9318,
      "Ġram": 9319,
      "Ġna": 9320,
      "Ġep": 9321,
      "Ġver": 9322,
      "Ġgl": 9323,
      "ĠâĢĵ": 9324,
      "Ġoth": 9325,
      "Ġide": 9326,
      "Ġelev": 9327,
      "Ġlack": 9328,
      "Ġ45": 9329,
      "Ġvery": 9330,
      "Ġemb": 9331,
      "Ġhap": 9332,
      "Ġimorgen": 9333,
      "Ġult": 9334,
      "Ġens": 9335,
      "Ġrike": 9336,
      "ĠÃħdalen": 9337,
      "Ġante": 9338,
      "ĠÅ¾enu": 9339,
      "Ġuse": 9340,
      "ĠYouth": 9341,
      "Ġallow": 9342,
      "Ġamb": 9343,
      "ĠXiaolian": 9344,
      "Ġradi": 9345,
      "Ġ957": 9346,
      "ĠXimena": 9347,
      "Ġlaw": 9348,
      "ģrpÃ¡": 9349,
      "ĦãĤĭ": 9350,
      "ĪãĤ": 9351,
      "ĵscar": 9352,
      "ĺlga": 9353,
      "dbyberg": 9354,
      "erm": 9355,
      "ered": 9356,
      "erel": 9357,
      "erun": 9358,
      "erapp": 9359,
      "erial": 9360,
      "ergen": 9361,
      "erala": 9362,
      "ertical": 9363,
[...]
